/**
  ******************************************************************************
  * @file    my_network_data_params.c
  * @author  AST Embedded Analytics Research Platform
  * @date    2026-01-04T14:20:35+0300
  * @brief   AI Tool Automatic Code Generator for Embedded NN computing
  ******************************************************************************
  * Copyright (c) 2026 STMicroelectronics.
  * All rights reserved.
  *
  * This software is licensed under terms that can be found in the LICENSE file
  * in the root directory of this software component.
  * If no LICENSE file comes with this software, it is provided AS-IS.
  ******************************************************************************
  */

#include "my_network_data_params.h"


/**  Activations Section  ****************************************************/
ai_handle g_my_network_activations_table[1 + 2] = {
  AI_HANDLE_PTR(AI_MAGIC_MARKER),
  AI_HANDLE_PTR(NULL),
  AI_HANDLE_PTR(AI_MAGIC_MARKER),
};




/**  Weights Section  ********************************************************/
AI_ALIGNED(32)
const ai_u64 s_my_network_weights_array_u64[2325] = {
  0x3e584775132b4507U, 0x56152ae01b1fcd2cU, 0xa9fb95f381f8eb15U, 0x9b852321f1cbfac8U,
  0xb9c4453719f139a4U, 0x3ccd1681ac9ea4c0U, 0x8186dbddafa8cee7U, 0xf0e0dff0ef24e2bcU,
  0xcb96b9adcfd1c2d3U, 0x2de2ee18193adfddU, 0xc3c02f179eae9a1aU, 0xe6fea5c730e681adU,
  0x9234f391ad7fe93U, 0xe9a90053b32172eU, 0xb4edcb1e397f9a0eU, 0x5d30593bf870f127U,
  0x1aaa38f5734702cdU, 0x160fb955ecdf35fcU, 0xecbab5da150d2907U, 0x2e24d0bf979a819eU,
  0x565e02ffdf45f15aU, 0xfb40167f0be5e6c9U, 0xec3e103cdddef438U, 0x7f54123ed3fde6c0U,
  0x68419aaec9b1e6fbU, 0x51822c20da3d95dU, 0x28c52fe8c8b45119U, 0xed38f537b1a40bd8U,
  0x7f314d2c31f64fcaU, 0xf0611ce1362d4a77U, 0xceff370f3b307636U, 0xd55c7f45e3d705c7U,
  0x3b144d21ce1523f7U, 0xc23ebfe0ebf52d06U, 0x2ee718b0cb13213dU, 0xf11a225058530214U,
  0x4ed1577b7fef603aU, 0xbf380c1f5f522928U, 0xd0f2f441fdd0dda5U, 0xf0d929e3f981e3d8U,
  0xb8d5ad81aec9ac86U, 0x18ec2fc21337c6f1U, 0xed2aade5c230bfe3U, 0xe9d4d3d6fb2b4659U,
  0xa6e5e0d799902af5U, 0x100a1250f2d6427fU, 0xc329655950dc25ffU, 0x51e40d15421c294eU,
  0x6b5dcc48db9707e1U, 0x3681e0e3d9211b40U, 0xcab1c41bfb58bedeU, 0xa1a0bcf549c09bc3U,
  0x114248bdeffa8128U, 0x23260fe5b1c0d9d8U, 0xb7a500002202U, 0x4a1e00007bebU,
  0x5eaefffff08fU, 0xe5ffffe09bU, 0xffffe445ffffb9d8U, 0x6689ffffe4c2U,
  0xfffff5a00000388cU, 0x627afffff66bU, 0xb9d2fc125400137fU, 0xb20aa368cdfccfe3U,
  0xce3aeccde0206365U, 0x75f2c676e0a7502U, 0x951159181f4dc25U, 0xf6e14aa47f052c6dU,
  0x8137147f36057f48U, 0x81814e2b7ec7a027U, 0xb943718a13ee2216U, 0xc32781464d0d1e2cU,
  0x181d192a99b6bdbU, 0xb1241e7fe59d167fU, 0x8a697e1be77f949dU, 0xace4fcbf917f989fU,
  0x33c3ef94194ab785U, 0xa8d32e189a69ff36U, 0x37d381e5c64b9404U, 0xb6ecb25def917f8fU,
  0xfffffd0a00000935U, 0x302fffffb86U, 0xfffffe0200000775U, 0x6a8fffffe9bU,
  0xffffff16fffffccfU, 0xfffffa58000006b2U, 0x14bfffff7c8U, 0xd7700000381U,
  0xaf1b31dd5a27b17fU, 0xdbdaf4c35e408860U, 0xe4d72519ca3fbbdeU, 0x81dcf602e3f53be5U,
  0x627674356a814efeU, 0xf4e425f5b04e0954U, 0x264971a298d34822U, 0x5fd7cd7fa56060ddU,
  0x4410729306f53a2U, 0xcf81db8ffbbf97adU, 0xcd3afd14e881a11dU, 0x64a4b8824f9bbbc8U,
  0xf4e43e265316b760U, 0xdc18d07f4f4e548bU, 0xd07ffb9a930fcb8eU, 0xe7115b464686b025U,
  0xa8d84498d51cd096U, 0x55821d5681dda198U, 0x53cc4711b4b3812cU, 0x2abc4d63b78cedcdU,
  0x35316331ddcdb1bU, 0xc9c824b7ec137fadU, 0xbcf91d94fc472b57U, 0x5527b124ae813ceaU,
  0xcf7c42dadaed6d01U, 0xff397fb845fce396U, 0xd3e9fcf0d6121eU, 0x7fcbe4a45ea111a9U,
  0x8e81c986ff249af0U, 0x5f7e7f2c2c6f24b4U, 0x54ef7fe4f0da4131U, 0xb3efcd5e09abd224U,
  0x9bffffff964U, 0xffffed79fffff2bfU, 0x169100000f6cU, 0x985ffffecfcU,
  0x51300000e49U, 0xfffff9a5000000ceU, 0x8f5fffffaecU, 0xfffffb1cfffffa3fU,
  0x161076f4e4957f25U, 0x3e01cfab0f2b98f3U, 0x525c768141afd8b8U, 0x99b96395154c30d4U,
  0x2d1f0e12eed31cbfU, 0x7fee11315101dbfeU, 0x1961fb533d5402c2U, 0xeedb383481f13138U,
  0xa0118ae121a8c76U, 0x812713dcefbecadcU, 0x340e196407f9e5bU, 0x16d0b601eec719c8U,
  0x74251b19e470f0f7U, 0x1dd181fd1311ce26U, 0x36bdd14181d907e9U, 0x1eed5e028ebeb2cU,
  0xd4c6a2819e8e5e35U, 0xbd0eb80255d630e1U, 0xe92d2e310b1f98faU, 0x4e67f331e14d399U,
  0x4cba2ede8e9fa3fdU, 0x255b3ded3c257fd4U, 0x99b72f3b797f9f9cU, 0xed42e76ca3f68c04U,
  0x35c4f6a45ab64e81U, 0xbbcfca0097d33307U, 0x13cec1a942b8ee63U, 0x2109810bb0deeaefU,
  0xe5b308ce00117f94U, 0x54e5cf0bb213a51dU, 0x21f17fc6f2363ee1U, 0xe7aa231658d727ffU,
  0x28be8153ccd83dU, 0xf060022306fb2438U, 0x580d2fe9c6472919U, 0x811057db8b33a71fU,
  0xee8f2ea1387a81a9U, 0xad502b23dbdcf6e5U, 0x17276f3ce481c7eaU, 0xc9ba086c41e743d1U,
  0x9d3ccb6ec94213f0U, 0x3116f281e43cfbc1U, 0x961be1620ce5e155U, 0x48f10681f5dbe84bU,
  0xebfed417f712d8deU, 0x2ff2152639381ddU, 0x3d9ad835035ec046U, 0x482c8d4c35577fb4U,
  0xfad61b7fc316fc30U, 0xd7022c95ee160c0eU, 0x9ed52ac59bb97U, 0x7fb976ba5d95b82cU,
  0xfa812476d92fc5ccU, 0x19133adfb9c13f3eU, 0x138cf2e319298fd9U, 0xa9fa4ed81039357fU,
  0xb512efd40919e269U, 0x7fce5d8f3be055f0U, 0x2ccb5df71fe99b65U, 0xaa287f375f1ad607U,
  0xf6077209fd6c34e6U, 0xfff7aeb0e6ead81U, 0x3dc4734d381bacfU, 0xd862473c2883297aU,
  0xa9cbc97f033e75b7U, 0x133ff89628148d36U, 0x39355aefc298f881U, 0xa83d56b8fa6416f8U,
  0xef1a2dd2cdc80373U, 0x34db64e37f30a63aU, 0xcf9a0eb6241be83dU, 0x9fdd81926cb71a05U,
  0xe4caba7f2d6ed7f3U, 0x2fe0eddcba34eee9U, 0xd9c8b4bbe59800abU, 0x1d7f224a5df30ef4U,
  0xb15f09d668b0d3e4U, 0x581d96a2321a897U, 0xf59c04f88194160fU, 0x12ebdddfcb1c0ccdU,
  0xdcc6d924e181f0e3U, 0x7f41bca00afa5b6U, 0xf2cb5131d9e0a4a6U, 0xabc7f5b9d7cc457fU,
  0xb81d3de32c21cbfU, 0x71134670c2143a49U, 0x19d009b46c0e8c56U, 0xfa5e7f5ac436de43U,
  0xfa197d6dc9d2025bU, 0x81e2d710d0031ff6U, 0xe6f314d47f5fe519U, 0x78f2df64c728796aU,
  0x649c62694001037fU, 0xb0155647e660cbf4U, 0x3001f4da38bae87fU, 0x3463b7d6dd9bbb97U,
  0x56caf430cf7fd2c5U, 0x2ee4ee283823641dU, 0x5afeff12af14deb8U, 0xc54752aa4eff397fU,
  0xfc60d4427ff429e8U, 0xc61de6bfda95838aU, 0x337aa10f33c2142U, 0x816e4edbe0ebd472U,
  0xe239813842aebe85U, 0xab7ada41ce6cdb23U, 0xb3d446d1810ab42cU, 0x47dc0f2553b2c683U,
  0xdcaf1f33e305ab3fU, 0x5f9a2e0639bdb281U, 0x242381c4bd95dd5eU, 0xa2315a3a7faae0efU,
  0x629c046ef2ad7ff8U, 0x3a3a009eec172bf4U, 0xc7ccb556fc6ba0ddU, 0x23c865038167cf4bU,
  0x96bf5c71e6c681ebU, 0xb714f749e786f751U, 0xded23e7b1508ea01U, 0x81cdde3b8f6ce705U,
  0xae7fd2a4000760afU, 0xc045cbaf04782fcfU, 0xb2c6f2707fba20e5U, 0x61284825eafe1e13U,
  0x7f02f2bd1323ed07U, 0x90270c3bdf0ae815U, 0x7fb701307f2161efU, 0x4f2cd3bc9c087c7cU,
  0x1d9000001f7U, 0x1d8fffffe7fU, 0x660000004cfU, 0xffffffb0fffffc45U,
  0xbf00000037U, 0x22000000836U, 0x4e700000c2dU, 0xfffffc7800000645U,
  0xfffffd02000001fbU, 0xffffffc100000c16U, 0x3aafffffec7U, 0xfffffb34000003c5U,
  0xb4d000003eaU, 0x58afffffe02U, 0x121ffffff71U, 0xd500000028U,
  0x11b0000015aU, 0x3cefffffec0U, 0xa5000001c3U, 0x48e00000302U,
  0x6970000083aU, 0x403fffffd45U, 0xfffffe7b0000000bU, 0x579fffffbb8U,
  0x37dfffffcedU, 0xfffffe350000071fU, 0x484000004a3U, 0x4b000000599U,
  0x4b4fffffa3eU, 0x13f000002a9U, 0xffffff27ffffff0aU, 0xfffffb01000003cfU,
  0xeb84b45b81d4d0cbU, 0x1b50cebbf73b810dU, 0x427f1b0354090d08U, 0x507fdaeedae6b832U,
  0xece80c0463a70eb0U, 0x227fe02967f308d6U, 0xe9cc8aaab7c001e8U, 0xdde6305ecf36a126U,
  0xc5e4a6f8c0c3c008U, 0x586381da1544cbd6U, 0x7f0355dad52d3b4bU, 0x7f4005533b56ccf9U,
  0xe78b7f3b4faa7f81U, 0x667a45d0bfeefc5U, 0x89d48e33a3ef0decU, 0x8e16775ff4182d50U,
  0xf5d381c417bcc83fU, 0x3739b7291c089807U, 0x691c5eeec32754fcU, 0x28135a2c627f0404U,
  0xd2d36234ca0968faU, 0x81caba7fef06dab4U, 0xb521c0499cc636f2U, 0xc2f07f77cacf4011U,
  0x6b60b7f295581a6U, 0x6c28c2109fdbd67fU, 0x1f4507c7439c7f7fU, 0x5f4aaa4fca550dd5U,
  0xd2e60e81620df8ebU, 0x153681ef4bc909e3U, 0xd173810188feb091U, 0xa8d41c739916e42dU,
  0x48bc32502d14120dU, 0x7ffac430cf259034U, 0x492259cb81ca7435U, 0x481a436c057e2ea6U,
  0x81be79b4158122e7U, 0xfc08d92736bc3481U, 0xa4559a158125c281U, 0xc0362b7f2a473b4cU,
  0x3692180f09812412U, 0x2d440e7f0666a817U, 0x6bc63b81364721abU, 0x18507f6c333c33b0U,
  0xa3db2dd9959f41f9U, 0x8a8fd844e981148bU, 0x814b0658034d81d5U, 0xccbb570323243f3aU,
  0x2c8114673f76c081U, 0x59813e05d881e669U, 0xdff52ef0dbc83c02U, 0xccd8d27f81148181U,
  0x368125f3fea41ef5U, 0xcc42c9cf7f347ff2U, 0xfca2de41bc7f1ef4U, 0x8181dc102a3ee581U,
  0x7f86233a262964c1U, 0x619d774b8185e978U, 0x3f97fdf8d3950b3U, 0xeaf646531d16ebbdU,
  0x5babab3d018200dU, 0xd9e6d5be501c1ea1U, 0xb88ab27f314b46f7U, 0xd9c0af237f7f819eU,
  0x68a122ec0a0b5429U, 0x36ca3177b88fdc1eU, 0x60134cbbb67f1d8dU, 0xcd240252cf4e4a8U,
  0x20f98acd8100f6dfU, 0xd7f6f6b6efb8d3a4U, 0xaa81cd10fc26142fU, 0xfcc80c06435c8906U,
  0x68f000006d9U, 0xfffffe2200000021U, 0x2bdfffff7dbU, 0xfffffe61000008ddU,
  0x1824fffffd0fU, 0x81200000a04U, 0x451fffffd4aU, 0xfffff324fffffd6cU,
  0xfffff20f0000072cU, 0x14e00000264U, 0xffffed46000011e3U, 0xfffff6d3fffffccbU,
  0x45e000012cdU, 0x50ffffff40U, 0xfffffc11ffffecb6U, 0xfffff8fefffff980U,
  0xfffff824000007f2U, 0x2b900000aebU, 0xffffffb6000009a9U, 0x3a500000c85U,
  0xfffffd1100000ed2U, 0xfffff6fe0000040aU, 0x10da000002d8U, 0xd95fffffe7bU,
  0x3c00000377U, 0xb34fffff66cU, 0xf6bfffff949U, 0x1789fffff6fcU,
  0x2e5ffffffdbU, 0x249fffffc84U, 0xfffffaddfffff94eU, 0xe7b00000c92U,
  0x1cd903bcf35d2488U, 0xc54a4d4304daceeU, 0x353827b3bf448bf6U, 0x2ce29f354a67c386U,
  0x1e9504100a93cff5U, 0x25033a8394b22933U, 0x920d13b6cdfdf02cU, 0x81235fc53bb31a0bU,
  0x8b9e4fc062a46acU, 0xcfec1fb3ddb4ac0U, 0x27fd4b81ee21d22bU, 0x24043127fff3bc89U,
  0x1901f3d9fdc141dbU, 0x14dbaddc2a452b56U, 0xc9a5f9dfc13423ddU, 0xede5052df5fdf70dU,
  0xeb0e2aeecae139d3U, 0x7c5f8caecf03bcbU, 0xd3c332090443ffacU, 0xeff24ac4dcf0de36U,
  0xdb46bca9e6dd0cdbU, 0xf8d829afbeccd1eaU, 0x7f24cdf7d5cce5e3U, 0x1e4717f9f415c1e0U,
  0x40d3ebcc29b41c0aU, 0x30140fe8e4108ec1U, 0xdd25fada40010800U, 0x997f4039c43541f9U,
  0x1ccfa0d71e5d07dfU, 0xbc9ab912e915f5d4U, 0xb0e6160ffc17d250U, 0x12b62b48debf1439U,
  0xbb44eae03df25943U, 0x2762a3e8a00bfcb0U, 0x9ffebe34d55ff42bU, 0x1e8dd2233928a712U,
  0x42c6cefc2721c7e8U, 0xbdd81f4bba7166cU, 0x9310ef30f2457eaU, 0xdaa823bbd9efd731U,
  0xaef1fc210efdefedU, 0x3753c57f451cf1d2U, 0x23db23472b36d1e8U, 0xc12cad3593a5231dU,
  0xc2b90c101cedec1cU, 0xe33d41ec4bdf07cfU, 0x3029e8c9d930f047U, 0x192cb132169700f4U,
  0xe5b9dbd9b4d82fcaU, 0x49a9bc152944f40eU, 0x7f2e8a38e753e93aU, 0xd630502c4661a7b3U,
  0x9710ec7f4f41ac57U, 0x5b552f36a2e6e5f2U, 0xffd3febab30ab365U, 0x5726d0baa2101d1cU,
  0x1cdbc42ba00918bcU, 0x1ececda69a2ac6e5U, 0x3ff70710eed5ed23U, 0xfa4c2ac33406480cU,
  0x3e483a81d3fd174dU, 0x2cb7c106c9c30c2fU, 0x3622bfdb39cac50fU, 0x4220fecbf700238fU,
  0x40b045e6ab733cfbU, 0xefd314b9e230db7fU, 0x15010942fc23c12eU, 0xed43241d2d34e997U,
  0x15e84b13b5f4c821U, 0x233a2708a23d22c6U, 0x91e2caa2b81cebcfU, 0x4c458c12cbc559a8U,
  0x23a2f2d70ef66734U, 0xed59d5c9d5c82d19U, 0x221f56be204ed1d1U, 0xcbd6d4d321358de9U,
  0xee61edfaef72cde6U, 0x449ef081dcd41cebU, 0x2dc1d2493995b5fcU, 0xd5efb7312fbbe020U,
  0xdf1222f9c8c04ffdU, 0x4d4d13c8f707ca0eU, 0x4308253731fc1403U, 0x82e74fe22dee01cbU,
  0xe23be5beeb0229d2U, 0x4eae0ad6c613ceb1U, 0x7f34f21c18fccbd0U, 0x193172d6cca325b1U,
  0x332bc529d83609eaU, 0x41bef1b00ccba2f1U, 0xbd23ab5420d36b8U, 0x1df2261af6f9ba81U,
  0xbd25213aeef6fbbdU, 0xbbe27a48f23ce6caU, 0xc413fd14111e431fU, 0x3002c2cd0840251aU,
  0x8126272d0f23f2baU, 0xf5ede81b12f0d212U, 0xd7ef3fc20c1a59f9U, 0xd17e5474d44f9dcU,
  0xf1d0cd1bd4e403c1U, 0x3809dd38221be912U, 0x1e1310151503e310U, 0xe32614f63729bf15U,
  0xe2e4204411dbf56fU, 0xbd36bfd0b9fcc624U, 0x39203cb5aee9377fU, 0x4eb3bf101d2cc22cU,
  0x3e0d2615ecc3fb43U, 0x849dfdb41fa0428U, 0x38e6fa26aac4b307U, 0x5eb6b56521eb1a82U,
  0x4f3438cea3064209U, 0xc61c10eb5ff3ef41U, 0x2a35c9d7da3308a8U, 0xf2e345f70345e610U,
  0x562dfe2cddf3d0a4U, 0xb241ce07f1da2d0fU, 0xbe0d34ed222d4641U, 0x19dcfbccdc7ff9ceU,
  0xe90567562e40dadaU, 0xc53818bf396b2531U, 0x2b5618439ec90100U, 0x2923004fc442e8f2U,
  0x2481120878c5c121U, 0x8ed3259bc3eb29dbU, 0x122284da5659550dU, 0xd662dc3d32c1334dU,
  0xeb5316ef17eb12e4U, 0x55de5c9531c50e2bU, 0xa3bd6d9a20255510U, 0xc8331eef3960eadfU,
  0x312207c103a43d05U, 0xea187f10da3237c2U, 0x54b92ba91a0e1139U, 0xffb7cd00d236329aU,
  0x98b4c1060c5fc3ecU, 0x74e9f2c7c6b83130U, 0x1926ebcf16ddd92aU, 0xd6d2ff58cadd1bbcU,
  0xb51d58e4111e51f1U, 0x52cee58e0bcd2326U, 0x55b9f3203811811fU, 0x1fceb014415cf4c5U,
  0xb750062ec8d2acf4U, 0xce34423d00540846U, 0x433d167ff6f44a0cU, 0x432fbeedfe540419U,
  0xdcf961f4b2e42afaU, 0xac266be157c41dd0U, 0xc24008de07db240aU, 0x385d3214e511dadcU,
  0xf12f0b51490ec2aeU, 0xdfc53cf96c2de767U, 0xa63b00374fcbcf15U, 0x1d0e3362d013a69U,
  0xf0dcbf7ffafe347bU, 0xd72ee21df36bfdccU, 0xe83bb2eee2f1432dU, 0xe4f3b6aac7aaf302U,
  0xea17312f15e1f5eeU, 0x3409e811fd14e7ceU, 0x3ae8db7fadb943e7U, 0x116440bc131fb26U,
  0xdbe5c70ff6e7cbffU, 0x1901b61322ee43cdU, 0xd63802d145e72cbaU, 0xf23722c1072d14daU,
  0xbc0be3fc2fecffb9U, 0xcbc202c2393529f6U, 0x33fdf8f603f60ac0U, 0xddf915ec4232bf58U,
  0xd664d2e70eb6ebc7U, 0x37d25e17f0decfa7U, 0x1c02fbe53af21601U, 0xf67f030006f0cdb9U,
  0xd21cebe82b271618U, 0xc1da24fc0052dd11U, 0xf83e270ed33510e6U, 0x32f6245feb38d729U,
  0xd2ba583825b904eaU, 0x11b6f92126cfcccfU, 0x52181195a351b2dU, 0x8404fbe223110afU,
  0x92341131ee27c12bU, 0xd9e214e7ce4ca632U, 0xe01b3ed1ff15e6f6U, 0xfb2afde8f1fa51deU,
  0xf2d7171815c22738U, 0x27d1205b05fcff31U, 0xb52cb40d03d21c31U, 0x7fd0e13c124902deU,
  0xa870000155aU, 0x83500000e75U, 0xfffffc4200000c7fU, 0x8e3fffff5bdU,
  0xd280000031bU, 0x5e30000021fU, 0x6afffffb11U, 0xfffffe10fffffd64U,
  0xc7bfffffcfeU, 0xfffffe78ffffee2aU, 0x3a0fffffd6fU, 0xfffffc0cfffff95cU,
  0xfcc4e20a7f1bf717U, 0x16180c2b320029dfU, 0xa05a017023f70097U, 0x81506702971e1238U,
  0xe24132b397c70466U, 0x18c895cb58e352a1U, 0xf5ebc4f8317f69b7U, 0xcbe2c124d33e19f2U,
  0xfbd326f2cbe6d637U, 0x8a484b07bc3579e1U, 0x2b052718da9ad65bU, 0xdcc020047f529102U,
  0x9425263c18d4dad1U, 0xd804054f81faecb4U, 0xdf2ba6b51ad7b48bU, 0x2b3fdab681b0e4f7U,
  0x3d5fdf3547a0c3f1U, 0xdff2291e51dcd5c7U, 0xd4de222d38fed7e6U, 0xaff9112621c534c3U,
  0xed81c9bc22d248cdU, 0xe9ef03cf4d4dddd6U, 0xf3812026d9d210daU, 0xf1cac89d0dec23f1U,
  0x18cc740cc5685077U, 0xf1248715a22f4ec6U, 0x81be4c162ac43129U, 0x29e3153ee96c4f2bU,
  0x727a4263b4a1f06U, 0x81c54316e898bd02U, 0x4039eab3c5e6fbd5U, 0x90befb2def04ef6U,
  0xabca91da2ac7f40U, 0x1042f1c91b65ddd1U, 0xd274ea185f49de02U, 0xc21c0f7fefdfa8f7U,
  0x171cc1b8af00122eU, 0x63e854f1dc38007fU, 0xeeb940c552d8070dU, 0xdd81ce08d41efe4bU,
  0x44dd5f4be9c73cfcU, 0xe810db21cfe21514U, 0x6bc73ea3155c1534U, 0xeafd05f4305ef235U,
  0xce46d8145eeb769U, 0x5b2669bccb08812dU, 0xd4ee83d02f4bd9daU, 0x5d2ffb1848b5a9d6U,
  0x42b7f0c5b44be00aU, 0x5814a27c2531e03U, 0x1e6c4ec8eae22dbeU, 0x29e3ea7012e40009U,
  0x87155381d9e00979U, 0xae9bb591fec759daU, 0xb5e5c77f4d11fc1dU, 0x72ed9cd4a9aa8cbcU,
  0x2bc0d13acdfd2de6U, 0x18645391061321e3U, 0xf04ec96218ee5705U, 0x39ba0debdc2d237fU,
  0x3353f47f240ec35cU, 0x2b1fd51c081ef5e3U, 0x2c1d0007d8a72ae2U, 0xd1a6cd08aa465257U,
  0x13456c52985c2d3cU, 0x36fbd927c27f1ff6U, 0x30b98e1d1c9d332U, 0xf463dfedd906e4dbU,
  0x26be810da470dc2eU, 0x2600272d074bcbb8U, 0x8b8c0b06c6ec0af4U, 0x5bded8e6819d1c11U,
  0xdb220416811c2523U, 0xb5d6300af1f7ebd1U, 0xbbc92cde0c0605c6U, 0xa00ddfbca6b2bccU,
  0xf37fbb280252151fU, 0xaba6fb11e2e0f6fU, 0x38baf4f69cb92108U, 0xfb8fd9f7d14c9801U,
  0xebe081462ce458fbU, 0xf94a109ef6c20de3U, 0x453d7fbb64eb3339U, 0x36b31ab134d6dd03U,
  0x27411f2600f93bcfU, 0xd51eea3bd85216f5U, 0xb8c54272e781fc1bU, 0xb8d1ef3de1187f40U,
  0x3f28011a58c14f37U, 0x30d348e001c0bd6U, 0xfddab4e010e81a7fU, 0x392fecd54d8d4834U,
  0xbb0a14ecf999d582U, 0xabeb387fe5de0fffU, 0xe72a1f040c1ac405U, 0xcfec29512ad671b8U,
  0x9f0fada0603c2f7U, 0x41d81a701e5e8ccU, 0xcac2060127fcdfa5U, 0x4314dc063422160bU,
  0xeaef27ec4124b117U, 0x3c9dcf3fb24813eU, 0x7b64ce54e1a3a1a3U, 0xf02e30a77f210437U,
  0x44ec7f0b22efe43bU, 0x8f62ddea070ece1eU, 0x43ed1111b45cd44U, 0xe704efef28f281d5U,
  0x43fc9a3555213d43U, 0xb3e21a27182b1fc8U, 0x27ebe8078129fb01U, 0x9d26d90adae323e1U,
  0xd241c5417f1cda08U, 0xbd21053bfceeff26U, 0x932c3b0d0d00d7b9U, 0xbb814aecc015d9d5U,
  0x103a1aec36a023fbU, 0xc7107f611d34af02U, 0x58fed5afa9263c99U, 0x56c5ef6bbb07b925U,
  0x3ac0dd78ee751adeU, 0xb203d8f2f8452ed7U, 0xf910d7e0e7812ea9U, 0x1af30adf18e6ee81U,
  0xacb1095736b104e1U, 0xe5c00f42f4e13751U, 0xfffd81fdc4d8405aU, 0x513361114bf257bfU,
  0x33406350a795802U, 0x12d638b3f8dc4fb9U, 0xd30ac85b75a0fbd5U, 0x51f6b3f3d62c7f5bU,
  0x4c898f6fedb82bcU, 0xfc76eb1f5a888134U, 0x6810c1351d27203aU, 0xaac0816d52bc52baU,
  0x907ccbbd2229f7f0U, 0x3e2604a3a0418e8dU, 0x39ff0a08bb170cebU, 0xe0a414dd08f3ca0fU,
  0x2420e3e8db3e7fd3U, 0x91ac1f2aff07aed3U, 0x39558281b6fc2c0eU, 0xf7dbc6ffcfcf9dd0U,
  0x3f6d7052f28973cU, 0x7fe0d3570f1b6d33U, 0x3e6ff2155c0a2f43U, 0x107f74c06120a1a4U,
  0xf7abb4ee2de6143bU, 0x27effc004dfb1ea9U, 0x10b288da5be87039U, 0x2cf6ef1e103c5b9aU,
  0xb2712de001812c55U, 0xd516c22505dc16b5U, 0xaa814ac3c62d5ba5U, 0xc1b0b4b421cc2d8dU,
  0x2918e4ade6d625dbU, 0xfb65c6254aa238c3U, 0x14d157f953d2461U, 0x3c0305c19c03670U,
  0xf85a020a5581e514U, 0x5801c9b2f2ea9938U, 0x7e9c21ca5c931d81U, 0x9cb00602cbd4edadU,
  0x1bbafb6c014fe093U, 0x287fce0fe433d55bU, 0x563b22501929c14fU, 0xa3d0ad7eeee0160U,
  0xdc811d51f7221c04U, 0xd1581f44219da4dcU, 0xbdbd0344229bcf9U, 0x81e62346bfba2e1fU,
  0x53f0daac1ed4b8d2U, 0x1b2f2d1960f3b5efU, 0x81afca2005cc5afcU, 0x129ebcbfa30d6201U,
  0x9194c0510fa34900U, 0xb2dce1cff181f04fU, 0xff65fd26d7b9923cU, 0x3e07e6eb6111d2a5U,
  0x1bf38126bdd71faaU, 0xe07ff809e6bedc33U, 0x37af25d1407baf6U, 0xf8710e40b3ad81eU,
  0xd7cc5a13f4f83de4U, 0xe1fb1b8103340a37U, 0x82e9ac7aa4961e48U, 0xdedb16d811b93d05U,
  0xcfa3a07fdf43e2feU, 0x5a46f27f2916275fU, 0x124a8a34b951ee20U, 0xb73e4264b4cbf2f5U,
  0xbfe8f1a5b9f6a88eU, 0xa970e2c87fb51d40U, 0x171202f7b0237941U, 0x2bbd5f2127b9dc75U,
  0xcf4a1fd681bc10abU, 0x2dbca20e052d9cbeU, 0x59072e812a35291dU, 0x531b2bedd69eee4eU,
  0x10fd04da2df42428U, 0xd80e1732b536ed47U, 0x114bd1f8007f59aeU, 0xa8ef1bc0afc11bcfU,
  0xf822ff23426667f0U, 0x21c9e0cdf97b7f4cU, 0x257a63f5edeab850U, 0xde7fd71edbffff69U,
  0x905496a41e135e22U, 0x25452ea00a1de80dU, 0x443cfbee1dcf7bb7U, 0xff1044252b2e18e9U,
  0xa2bc1c4281c55b1cU, 0x2fd1be063b7fa543U, 0x47f02e2eeb28f218U, 0xaad06c5ede3c17f0U,
  0x28a3af6e2e7ded40U, 0x6b4f3258c994391U, 0xe1506bc9c5021f81U, 0xcbb2af19db647fe2U,
  0xc3d0ebca51d9dfe0U, 0x90b3cd0badcf3f72U, 0x32fc58eeff693b20U, 0xedada3f73e226412U,
  0xca8179e757ab0e2dU, 0xb50eb781574e72e4U, 0xd3bbbcc11b51efc3U, 0xfeaab49beeb0ebcbU,
  0xf43036cbf07517b9U, 0x813ab90b421d11b0U, 0xd5a6fd32dd0b04faU, 0x71d03c3ced1b981U,
  0xa3fa21dc09abd7f6U, 0x2d1be3220fecc6ccU, 0xa73c04947f58c740U, 0xef29d7b85f0875cfU,
  0x869f3aff3b15ab32U, 0x810d271bab2c2034U, 0x3f0cd141dda59a8U, 0xb3231121ff17d5c4U,
  0xd2071e1200fbdf24U, 0x26edea1fe507c34cU, 0xed0acef87f50d916U, 0x2a02283227e7c5d5U,
  0x81dc0ec7aadf3dedU, 0xc392ffdbf1b8e7a7U, 0x1cfbd30cb1ac0c81U, 0x814b2d244bd3a12fU,
  0xcde83fdb01229e6dU, 0x13103dd705179ceeU, 0xe311150fbfdea906U, 0x49281a17f6ff81c5U,
  0x24fdec3918b121b2U, 0x78afc6ac339506f1U, 0x7f25035144cd7de9U, 0x57058199be0564fdU,
  0xf20a72a021a9c05bU, 0x3e3033deea6a45bbU, 0xdc7ff7aeba448fe1U, 0xb0d0a623c40e337U,
  0xfba1e747d40ba2f0U, 0x1b0e7fe7f30235d8U, 0xf0c7f6c8534f1839U, 0x5409f2dcc3b71915U,
  0x51dd4ea25db4f69U, 0xbdeec21f7fe5050bU, 0xea16cd002ccfc44aU, 0x68d415de2b403efeU,
  0xf81fd4520d139faU, 0x3e3131b5d62f3434U, 0x902904daa35000cU, 0x494b552c3cc8810eU,
  0x4de905ef445c15dfU, 0x5d04180cb4522d56U, 0x1f124316014c3c4dU, 0x41617fb9cfe33defU,
  0x12cbd2dfe90dcc86U, 0xcf0cdc15f6af9d17U, 0x7fdbc157ff21de27U, 0x5620d8e1cf3996f5U,
  0xfcf681d51f3e64c5U, 0x5e1651ac23f7b004U, 0xbe1c4726f18a140aU, 0x7f58aa1a19cde841U,
  0x4023f82c76f7d1a8U, 0x2fb4e72521227f67U, 0xa92883b1f44013bfU, 0xdcea8ca5d301bed8U,
  0xfffffbb10000015eU, 0x5c5000002efU, 0xb9ffffffb2U, 0x34100000435U,
  0xfffffe8ffffffafdU, 0xffffff74fffffd34U, 0xb7b0000070cU, 0xfffffdb800000140U,
  0x468ffffff4eU, 0xfa0000024aU, 0x6b2fffffe2bU, 0x23200000380U,
  0xfffffaba00000093U, 0x4deffffffe3U, 0xf7c00000137U, 0x3eb00000171U,
  0x31d0000015eU, 0x1b3ffffff26U, 0x41d0000019dU, 0x17d0000015bU,
  0xd63000003ebU, 0xfffffe24000000fdU, 0xa900000005U, 0x911fffffea5U,
  0x30efffffc6aU, 0xfffffd29ffffff22U, 0x433000001d0U, 0xfffff7aefffffef7U,
  0x51ffffffef1U, 0x31f00000470U, 0x10affffffbaU, 0x13f000007faU,
  0x5210000018dU, 0xfffffd30000002efU, 0x2defffffdc4U, 0xffffff6900000088U,
  0xe9800000453U, 0x3ea000002bbU, 0xffffffbb000003c4U, 0x2d60000005dU,
  0x5070000005dU, 0xfffffffcffffff7dU, 0xaafffffed7U, 0x55a000002acU,
  0x32f0000078eU, 0x1b3fffffe83U, 0xfffffb28fffffe05U, 0xfffffb4f0000019fU,
  0x7deb812c953118b9U, 0x927f811803afe9f0U, 0x30e206316786f693U, 0x963acb91cb7904U,
  0x171f038f7481fe1cU, 0x5369e47f813f0f19U, 0xb5c8da2593718e7fU, 0x312315c52b7f120bU,
  0x7fda0081606c236fU, 0x81b24806c028deddU, 0x77919fd1969e6e2aU, 0x61df215a3994cc22U,
  0xd613aa0781da7f00U, 0xed68d2cb989dc0d2U, 0xbcdd1f15dcaf7f16U, 0x3a280e938af05833U,
  0xec241f87fe5e7b7U, 0x27f8335e902723cU, 0x203de7e6ecb833U, 0x7f814d8e81422f0bU,
  0xc987d2f1bfcff37U, 0xfc813ce82003f7cdU, 0x7f81baff8f272efbU, 0x7fa21f2e6faaf840U,
  0xaad7cfd792ad4b3cU, 0x7f5c207c81818181U, 0x8fc97f7f81812016U, 0x39260181815f7f7fU,
  0x81e421ffc13d819aU, 0x7fd73fc5a85c837fU, 0x18a32dbd468681afU, 0x11067fb922bfc1a7U,
  0xba81601a14c8a2c4U, 0x4d094869f1814d81U, 0x36bb7fda813e7f93U, 0x870d00e83381e87fU,
  0x318e37bdfd7fbb06U, 0xc209e47fc0dcec8cU, 0x2c81a7e954ff69bbU, 0x81aee06edbfff01fU,
  0xf1fadc0ff1343434U, 0x14b590070d7f1e10U, 0x3cf812181bbbb3eU, 0x4a0fafaab6de13e1U,
  0xc7c4c6b058b4f8f0U, 0xdd0a2f81dd0039b8U, 0x4df2384d1e12eb7fU, 0xacbaafad658a0574U,
  0xc3b2e188ffe1da17U, 0x1cfcfccdaf2127a2U, 0x5cf8beeeb3885f2fU, 0xbd7fff5c46324202U,
  0x2509e7d3de121bf9U, 0x15f2cb0764e3f10eU, 0x7fd9a81917d51de9U, 0x8fc29b0d5340e00U,
  0x1490c5f9594b813cU, 0xfdf0813ca81010c9U, 0x2807363619f0fe82U, 0x34b00f137ff0e93cU,
  0x49b0406eae7272eU, 0x37951fc81dfb45abU, 0x43380f01daab9d39U, 0x1be208114504b442U,
  0x67fedd81d1f9e2ceU, 0x9bc7fc965141205U, 0xadc589c09813ab4U, 0xc101f1a1fe2aa8eeU,
  0xd6097fc77f7f3d0dU, 0x951eb148c2ef26bcU, 0x4954f17f2509a4f3U, 0x1f0a113217a2c44aU,
  0xf27f27e5217cfc9cU, 0xb18b2a06b24e245fU, 0xbcb98a8caa1fa381U, 0x48fdfde25a949317U,
  0x44e68104aa861098U, 0xcfed3e81290a59eU, 0xae81287ff9a9ed51U, 0xbe4ab481e9147f4dU,
  0x812b19a216fb037fU, 0x29b070c6819f8199U, 0x87d10e0f507fbd40U, 0xeb81818127db57e8U,
  0xa9759f677d372c81U, 0xcaa71da31637e27bU, 0xd4f296b41d199edeU, 0x1f1a99f87471ab25U,
  0x26f40433d4f10962U, 0xdef625091c01c7bbU, 0x22e220e837279d26U, 0xbda6bbc655447e5U,
  0x29d3def419e7ff6cU, 0xe7033d20bda8efb6U, 0xf19b1ed844ba9d87U, 0x5302e0ca2ddf1014U,
  0x8139257f3f92401cU, 0xeca590cf204b90f0U, 0x8142e8a7196aac8aU, 0x18ad8102427fa072U,
  0xbf81bf03e418e27fU, 0x1c4ccec9449e81eeU, 0x3acf20c25de2e1e3U, 0x33054d01d50a147fU,
  0xf139f8343f573511U, 0xcabfe60aa00892c3U, 0xeec758bb06ddc048U, 0x540c09da05d88174U,
  0xfffffb920000012eU, 0x8bffffffad5U, 0x53c00000238U, 0x44100000344U,
  0x45f00000499U, 0x68300000119U, 0x5d100000499U, 0x29100000360U,
  0xffffffff000003f2U, 0x10d00000756U, 0x6dd00000259U, 0x14600000405U,
  0xfffffd8dfffff94eU, 0x96fffffbcbU, 0x6600000027aU, 0xfffffefbffffff04U,
  0x33800000110U, 0x15b000000c0U, 0x3510000036bU, 0xfffffb03000001e0U,
  0x493fffffd46U, 0xfffffe99fffffefbU, 0x4f0000000dbU, 0xfffff88ffffffe08U,
  0x91bfffffd05U, 0x1a00000884U, 0xffffff8400000330U, 0xffffff1400000902U,
  0xfffffa75fffffd68U, 0x2d7fffff75aU, 0xfffffa0f000010c0U, 0xfffffa110000007aU,
  0x1c1fffff7aeU, 0xfffff818fffffa42U, 0xfffff9dd000002abU, 0x32c000005b7U,
  0x25700000d9bU, 0xde4000004dcU, 0xfffffd2effffff89U, 0x471000005ceU,
  0x96fffffc91U, 0xfffffee2fffffecbU, 0xfffffb27fffffd63U, 0xfffff73d0000091aU,
  0x46effffebf9U, 0xfffff3b300001043U, 0x15e000001ccU, 0xfffffd5100000a24U,
  0x311ed3e8d1210344U, 0xcae4cfe3b902eb0aU, 0x36391c3240c6acdfU, 0x96e0b8f94a1ce21dU,
  0xfa38d80c095445aaU, 0x410b35fae1c4fd0eU, 0x262c5512f62d47edU, 0x38cbf0f120e7cce5U,
  0x7f23f915bb232d0eU, 0x249c2af494c8bd11U, 0x15d10201d63c3d3cU, 0xee3810de02ddb052U,
  0x73aec0a151e1f507U, 0xb373de1312bb1566U, 0xd9ec4fe20e15a71cU, 0x2a21b5e732dc35f7U,
  0xc37093bd20bc603U, 0x81eef517dce7192bU, 0xad0dd8c6952fdfd0U, 0x1302e2f408bfd326U,
  0x1147fc5116d3c147U, 0x22c1ce3d8d7e0ccU, 0x35b0c02392092337U, 0xb0f1263aca9148f9U,
  0x1f051301c840fefeU, 0x5dd4a4d010e4d0ddU, 0xde5c6251db90ebdU, 0xcddf46e332e2dfc6U,
  0xd32a210a1d27fde8U, 0x2cb214c438bb2b57U, 0xf01d2032ad5c390cU, 0x33dec610f01af528U,
  0x21eac0a0090760fdU, 0xfd351ee67f59f230U, 0xadaf2f50a4610e3U, 0xea64ead6cb5ee9b5U,
  0x3b1ae30b15dbfc36U, 0xd5e1ed311ded1b14U, 0x3ffecf19121547d2U, 0xadc6cbefbf0931daU,
  0xed23d8e2fff2ab33U, 0xa5227505f3d7fbddU, 0xdd260ebf12137f31U, 0xd495ec4706c521cfU,
  0xdbafebdf30300819U, 0xcad4d90becdcee57U, 0xd0484eba0c07140fU, 0xef3bae2c2661dc35U,
  0xc6fef40e0cf5c6acU, 0x5fd8f99dc45542edU, 0x602f7f19912cc467U, 0x29c0a5314f2da4dbU,
  0xffd9190a130cd4b2U, 0xe2e0bbd4fbfee2d2U, 0xbadb21a4edc342e3U, 0x22f61d32d8bc2600U,
  0x8ececd6e643bee5U, 0xcf3413a590d7b3faU, 0xbc4912ea1b04b200U, 0x2f0d3917aec006d4U,
  0x1418ee6a07245939U, 0x5e3ce723e8bae9c8U, 0xd81a022b7f235906U, 0x404c96e8fdbe4122U,
  0x170f9ddfadeb332fU, 0x31cac85051cd2e49U, 0xd9f8cfe40f48e6beU, 0xe248ecbd3433c05cU,
  0x3deebc22fee921caU, 0xf6c57e4cf0d1f6d0U, 0xe8cbf531e4f232ccU, 0x49fe2959ccce0125U,
  0xcd1ada4236666be3U, 0xf5a9ac12fae0aafeU, 0xd93908a0bd144383U, 0x400cb3f82f13df2dU,
  0x3bc5d3453912f9d9U, 0xe6de012ab6cae1d3U, 0xd10897c34bf6824eU, 0xd9ee2ecce1d0752dU,
  0x16dcbbfde5967f95U, 0x9e22fe43589e068bU, 0xa4de2346298916d2U, 0xe6d19d225ce82016U,
  0xeb76fac7c32efc51U, 0x52a13cf43bf4eabfU, 0x1430327f3dc7d819U, 0xf0ee4a46d205e9d3U,
  0xd2e0be950bca20baU, 0xe5ea681f2c32fa1bU, 0xd822dd10f1fbc7c6U, 0xfd0bad0691e302cfU,
  0xa36ffd41abdd2dfU, 0xe509c4e0e7022e19U, 0xaa08fd06ffe2a1dfU, 0x1bbd27e716aae0cbU,
  0x362d17cb02cae00bU, 0x26140058dae65254U, 0xec22e8e287dc9deU, 0xfffc034dd8ded2ebU,
  0xfd373b230edfbac7U, 0x55ece3dad10a37cdU, 0xbf1c39ec0d81b434U, 0x902c1fa2a32cbb7U,
  0xf70308d0c4fde4e9U, 0x32f3ae19d619ddacU, 0x50cbd6f0aac1c843U, 0xbad928e90b24174fU,
  0xce2c3ce906cffb09U, 0x2e2f0e1cdefce009U, 0xe0f7a72702b3737fU, 0xefed15caca062721U,
  0x2dc12918b8ed0321U, 0xbe2fe45d2c23da1cU, 0xde72ff5c6c544e9U, 0xac48ae94afec292bU,
  0x8ece0462df41fadU, 0x1453b1e3622035cU, 0xac55d32e511b1af4U, 0x3aa8282afa9919d0U,
  0x2cca1ec23cdae631U, 0xdb0cd6391e23c340U, 0x301f281d28e609ccU, 0x126c6cb07d2c205U,
  0xe11df91033fc09ddU, 0x5310cce53028184fU, 0xd456f329ff10cf53U, 0xee03d49eec61325U,
  0xf74901dbea0cdcd7U, 0x2e27ca2a17d3d1e7U, 0x1bfbee0e02dc0737U, 0x1681dc0ef5060932U,
  0xf405d77fbdfbfd3bU, 0x3dc9cd1b1017db14U, 0x3b0fec338a3401b1U, 0x107c3d399724c3efU,
  0xe01136bc2ee3b367U, 0x3419f3e920e7e3d7U, 0xedc65a932aee04b5U, 0xe4d51d080cb9ff09U,
  0xc6d936a1c6f81fafU, 0xaadcf1c7d607b312U, 0x4931dc922017ffcfU, 0xc6ecc5f0283cd8b1U,
  0xcd5d50fb5400eb13U, 0x28aae1c3e1001c03U, 0x72ef11e141728afU, 0xfdb0a9ef2de4bb97U,
  0xdbd436954905c4e4U, 0xed3806fdcd031945U, 0xaf31ce8fb6ba47eaU, 0x81070dd1eed21344U,
  0xe329ffa4cd220836U, 0xe0bbc52ff8bfb054U, 0xf9daf7dadbeb373cU, 0xbfdfe0d1e12f2cbU,
  0x23a569d0bf81f84fU, 0xe2bd48c7a51fcb2bU, 0x2fef1cd9430ce63aU, 0xbd0f0919d613d05eU,
  0xd50200ea1dff20bcU, 0x433ae69c60102badU, 0x38f2dc8fe218cc38U, 0x7d907d820339de6U,
  0x42a3c14f3db25caU, 0x1ab7fb4a38b01174U, 0xc1cd0a160b1424b3U, 0xa643e0c4f417d223U,
  0x11dcbfbccca6588fU, 0xc56c0dfd18ea2204U, 0xdce833b9e0097f69U, 0x2a06264be833ff31U,
  0x32ef1f012d31205U, 0xe8d0a4df501ae555U, 0x2bccedbe10a20320U, 0x52924065b090a7dU,
  0x41daaed9b328fffeU, 0x5adfe0d9cff733c6U, 0x27e0d21aaed93b27U, 0x2fab0dd9b83ab04dU,
  0xe1fe0d522e17c3faU, 0x4bd682f928de0513U, 0xd5cb130e53cbc924U, 0xf531eef3f4caeb0bU,
  0xcbb1eac7fbc2062cU, 0x1b81cbc603fac75dU, 0xece1d7f6ec313420U, 0xe7e133c0ccd91012U,
  0xff481a22350607c6U, 0xab37d0f7854beb1fU, 0xd955f222e4172d2aU, 0x79bb55e9f9de4c13U,
  0x33c92942451bd612U, 0xb5042bf67fbd060dU, 0x9f18d2f729d4ded1U, 0xbdf029ece8e94cd9U,
  0x1ec5e27554d945eaU, 0xc6460b29a335051cU, 0xf2ee1562d9181b24U, 0xc541fafc2900e44cU,
  0xdd1a0ccc14edffe4U, 0xe801f057fb8b03fcU, 0xd122b7e2f9db1545U, 0xb5d15e3ef4eed9aaU,
  0x90036c7fa094a07U, 0x3f2b4452330be024U, 0xafebd9e32eccff06U, 0x27fcc7c2c5edf402U,
  0x23e5c8fac32b2c7fU, 0x419214139f29a0ceU, 0xfe3ad02907400fc1U, 0x3a3b43439fd4fa3fU,
  0x4832c223e5a3ace8U, 0xd0f22317ed358b1eU, 0x44410bc39dee4524U, 0x97cf7d903d75634U,
  0xe0d9eaf32c1ec501U, 0x363d92fea34f10afU, 0x159a0c052539e1cdU, 0xd2d2e83f15f1692cU,
  0xffe0fb1951dfb806U, 0x9fd3f7f02fde9d5U, 0xff43080c53523477U, 0xe6b2edbb19d9ffffU,
  0xf2312016e707cc32U, 0xd4cbda4342e845efU, 0xeac40709f8ed2239U, 0x22f222e050ba0ec3U,
  0xfbf9441defae48dbU, 0xc92ed5fac229decbU, 0x4506f618efbb7f08U, 0x3b0711efad4e5640U,
  0xff123849566859f1U, 0x171b214993ca15U, 0x1ad2d9286b680dc0U, 0x10d00ec08b48b6f9U,
  0xe30f39efe9b2f8deU, 0x1f38e71a0e7402b9U, 0xc3928225c9b72e6U, 0xf1c1d1d9bd2b3301U,
  0xb3f01eeeedc318c0U, 0x53f921d43eae07eeU, 0x2baf3c7f938e274U, 0x6ecf4c90440b60fU,
  0xda17d7e6ff0b383cU, 0xb7339806bf1cf62aU, 0xd4ecf406e7bc1c13U, 0xd32123d4e40710ecU,
  0xe0d9b52cf7325718U, 0xc51e38e927f9bc30U, 0x2e12dee3c907382aU, 0x250f43e47ff204a8U,
  0xddd9292542fc20cbU, 0xf80839e513032bc9U, 0xe92ab8da27f70629U, 0x220406ca1803e7edU,
  0xfce3d1d024c51adbU, 0xe5ea02cf23ee4a1eU, 0xc2fce41db12db3ceU, 0x4df3fb44cfef1f00U,
  0xf018ef0517f7f6dfU, 0xf2e808087f17232fU, 0x270efdf931191a0bU, 0x2f05e744b3780ed3U,
  0xea3f1a30be0ffbfeU, 0x2c1bcf35f35260afU, 0x292f033fe02b1673U, 0xee03cd6eea18fd1eU,
  0xea30c035aff10de0U, 0xe2093614eb43d6f6U, 0x2862543e453a2049U, 0x1c0e17e7e0e1350fU,
  0xbd4de64243ec07fbU, 0xc0f9c032d9fba5f4U, 0x521b1826301b16f3U, 0x2f02d2f01d81d10bU,
  0xfc1a0c104816cf18U, 0x33712f59626b813U, 0x4303823f69fc06eaU, 0xd904201e28cc5803U,
  0xefdc46b04922ed7fU, 0xc521101fdf43421dU, 0xffd50edece1644ecU, 0xd232010ff601d7f0U,
  0xe214f22af4e80b1bU, 0xfddc242f09d64175U, 0x3be140161c0204c3U, 0x463c375652e43319U,
  0xcce0000046bU, 0xfffffe18fffff629U, 0xfffff52300001813U, 0xe63000017a8U,
  0xfffff80200000ca3U, 0x1069fffffc67U, 0x4e900001506U, 0x57f00000128U,
  0xfffff75afffffeb2U, 0xfffff194fffff919U, 0xfffff4f900000319U, 0xffffe78ffffff00dU,
  0xdced37117f1ff10dU, 0x11cac3f82e95c0fcU, 0x410947dfa037e9ccU, 0x25fae228ff7fbe0aU,
  0x31e1d212fb36ebb3U, 0xc1d65bd817d75818U, 0xdf56fff8d2a4d933U, 0x367f14b918190bf9U,
  0xd66b449e43d5feceU, 0x16014d19d2f35453U, 0x1bfaf92681103b03U, 0x1c17c9e0f8f74217U,
  0x66c9b45c5649e359U, 0x8102f82fd130f609U, 0x34b21eeea4ade6f6U, 0xe3707fd02f25ee28U,
  0x2aea37162112f8f8U, 0xe038120624cdfe2cU, 0xb6c0fdf64949e10cU, 0xfc232d4a04e04381U,
  0x2be537253733fd03U, 0x73347083cb09af6U, 0xce20219b43d122bbU, 0x27bbe42a7f20a369U,
  0x9b082329f9712a50U, 0xf4f498ba43dbd3faU, 0x81562a370e1ad518U, 0x2f027fffb06d3420U,
  0xd35a48dbd10de5b1U, 0xd3168d0ff8a06c4eU, 0x2d32166c111f171fU, 0xfbba0c7feab0fcaaU,
  0x150685d8b001825U, 0xee34dee305edee4cU, 0xd1cad2685a6aa040U, 0x14be2c23e19c7f9aU,
  0xc00751d28102d2a4U, 0xe514cfe6dffa2721U, 0xdca2fb1d401c14f5U, 0x7f9030defc6456feU,
  0xffedc42217e9acfbU, 0xa8ae60ffd6dbc7f9U, 0x13e5e5e23d6f2e7cU, 0x96c4646f2b03bd81U,
  0x5a83bc7dd986e4cU, 0xb2b146effaa07f37U, 0x1e3605c6dd3d5f03U, 0xec17de21cc111cd3U,
  0x20c80d25f86d0016U, 0xfe3fd7641acef855U, 0xde3e453d81d1c7f0U, 0x21e727eb10220881U,
  0xdcb6eb1adfeeeac9U, 0x33cd123cd7e92e04U, 0xcea4e6d4083cef85U, 0xd02f0ae339d4e13bU,
  0xc2bfe07fdf14d62fU, 0xce4a1816297ffbe2U, 0xfcfafcf2cf0cf4f0U, 0xc48c40393fd12514U,
  0x2de3dd403c3f814bU, 0xcdabc9d82315d835U, 0xa5fef70fc8e3ce02U, 0xdf4319d6c7e736f8U,
  0x3c1c91b163f3ce7fU, 0x3a8dec3c105e843U, 0xbd0fc6c950b32b63U, 0xffcfc736b74bf549U,
  0x3ced81a1e238d66bU, 0x358b1f5910543a0bU, 0x3253d9c12ece623aU, 0x22ffca8427e76a81U,
  0x7bf8c8d270d04292U, 0xdaa2f88536269a39U, 0x81c71b9ba8e4badcU, 0xb2a801feed2a4127U,
  0xd800d6e425889433U, 0xb9fccee83056f781U, 0x62667fe2bc5edb11U, 0x1813e51c29ac60a6U,
  0xf9ebf0233eba3003U, 0x3fc91321e02e923bU, 0xe7e52ae600c98118U, 0xf95ab03b2401ee82U,
  0x5a0dc431e1dd947fU, 0xee9ef123ecece6a6U, 0x396329c7282306d2U, 0x815387e50a2251b0U,
  0x3cd6bf1404283045U, 0xd101f039600d1d02U, 0x4f9d01376b20808U, 0xd87f94235cdbed1bU,
  0xe0eaf1f350dc84ccU, 0x7b1774110428b4afU, 0x7fc68fced98c4df7U, 0x25380230705478e3U,
  0x652cf68a7e752cedU, 0x3df72dd6697fa541U, 0xf1a243fa52354d26U, 0x14c2006fd6cc1a79U,
  0xfa462c3fff2d027fU, 0xc3ca10eae3ede0c7U, 0xb0e8d84ca5e5f724U, 0xf048754c81264ec9U,
  0xc8bbb2cdb0078bbaU, 0xef25bd4a50e3e8c5U, 0xdebe19553b81f508U, 0xc622d24483f8f015U,
  0x2ce6f4edc7512118U, 0xb6114c722181001dU, 0x67eadb50133a9f07U, 0xe79044ab09106692U,
  0xbc32e21224e84235U, 0x16e97166f981e14aU, 0xfafbdafb532be9ceU, 0x9910f2ce1122ae59U,
  0x32810819cdaae221U, 0x14b50e4b05651aabU, 0x4021d85e30b21f81U, 0xffef6f92bb910dcU,
  0x1cc236c9bcde6ff0U, 0x35537f110fe617e5U, 0x53e4eab8c01510d4U, 0xd3b54a1cbefcd723U,
  0xfac229f10fd2f632U, 0x188126dae8c91a2fU, 0xd4d27fe1e122c354U, 0xcae90f65f434a3efU,
  0x388e2211074afa07U, 0x9e3c48aee413c182U, 0x7f479cb0722618e6U, 0xc72af843ce1af302U,
  0x381b9e44216c51adU, 0x3f49657fe81f042dU, 0xd7f23837a52b1e20U, 0xeee5c87e68d3c0d6U,
  0x52e6e0cd389f447cU, 0xecf29dc8c581e78aU, 0x6b79adc6ceebfba3U, 0x8f98ad59c0be3170U,
  0xedaf7f9ab94ce199U, 0xea9e08ff2f17191fU, 0x9f406d2dffc075bU, 0x5deff05442577fd3U,
  0x78c9d0640659bab0U, 0xd000efaed104d46fU, 0x8281329c168718f9U, 0x11094201b225364fU,
  0x696c2149687f1432U, 0x2babff4c5a210faU, 0xb028cac818f11e0eU, 0xaaabd5002ccde4e4U,
  0xea9454d124c95d7fU, 0xd9f3afc4f1fc3710U, 0xbc625055a7528156U, 0x6ba60998b313d6bfU,
  0xcf4ef49d26aba51U, 0xda1c3aa4c8e6bf07U, 0x8d082c1f4a195381U, 0x36ab9194c950403dU,
  0xfafc6b2af45d312fU, 0x326c7f7b4281022fU, 0x2ce9fa1e58f5fa11U, 0x603ee7f2c762930U,
  0x1530b324e2151d14U, 0x2b11d9aa3935083cU, 0xf481dbe54b1ef9d9U, 0x97aee0b1c2e7bdc9U,
  0x8113542304ea16edU, 0xbe04eafd32ecf210U, 0x4171a2a0e0ea4b8U, 0x7f8e01e2243af920U,
  0xfa8e2a2269ce1860U, 0xde2cbdca961636fbU, 0xc2755f0f2feef393U, 0x2c3ca2d42b1ae113U,
  0xb714e9b25cac7facU, 0x2b3c3e648cfa1855U, 0x4ccb813407f2f2d4U, 0xbd3612280a0f0a24U,
  0xf5e70de363897fceU, 0x791de463821cd155U, 0x46ced466e764377eU, 0xf94904c2342cd60bU,
  0x82bb7ff9fe711220U, 0xde9b43e854ddc836U, 0xde104d18272936efU, 0xe20304cf0ff14781U,
  0xa4991e56f5dff039U, 0x7540f17dcada45e3U, 0xd9bbc44e0e33c57fU, 0xba927bff072f1edfU,
  0x2f36d548f0e5495bU, 0xd23afe4414cd05d2U, 0xb924a7a1813adc32U, 0xddf410d1d7c607f0U,
  0x2130ce7f8fe171dU, 0xf30ed7d01dea7f07U, 0xee55f0511800ec3bU, 0x12f7e8fa99f255bbU,
  0xb721c834810a0c42U, 0x3a1176f5f2c1baabU, 0xf8943221a190eaaU, 0xba81fb3fd9a806e2U,
  0xff17d7eefa1d81ceU, 0x33f002e53c120201U, 0xf62ae3f2f6ebf10eU, 0x343a1d628119d8cfU,
  0x4b1103e446d0b2f7U, 0xdc13ce34c3152015U, 0xf2e620d5116c5212U, 0xf4daec22de2381ffU,
  0x3dc112b29b0fd11eU, 0x36fb811006dc175aU, 0xb6d5295c5f0cb203U, 0xc03ceaf8b0d2b2f3U,
  0xd8748efffe2b241fU, 0xc5483bd564bcfd27U, 0x42d31faaef24bf81U, 0x2dabce5e5014467fU,
  0x9e00c0b6fd209c0cU, 0x9e2ff59714bafd0bU, 0xf0cb0a0ed63640f1U, 0xcac0723e20e0efcU,
  0xa81cd0e9f9fd53fU, 0xeeece8084d0ce1edU, 0xebb511397fc7bc0eU, 0x14dcdfeacbe838ceU,
  0xf8e811c3291f33fU, 0xc3be2232f3cd29e1U, 0xf347ae1644fc44e5U, 0x1047ceebcd31c59cU,
  0xb48ded77d5594d16U, 0x113dd655588142U, 0x3ba156ea0ec4ed02U, 0x8604e349440fd636U,
  0xd4cdddaa4b83f7fU, 0x6ece1dd2eec3b1fU, 0xeec8c018092a0ee5U, 0xdae1e13bcd1ff17fU,
  0x38e11a4a812c017dU, 0x4cc25c1da0d52ae8U, 0xc90ac2e1ccceee4bU, 0x442f2638c3eac13dU,
  0xebc9e527c84f4fd9U, 0x811e340eefb432f7U, 0x300de90e03b8fb5bU, 0x7f2cd9e6644d1914U,
  0x1ef95e100a289dc9U, 0xdd61249fdd0a3c95U, 0xe2eee2b87f3eef46U, 0x717ef81f3d1a9060U,
  0x5d5537b3b9ccdadcU, 0xdf16811867e1242eU, 0xc7d62337efa3f203U, 0xc5f58de5328150caU,
  0x9c6e586a41d6faecU, 0xf328cc379e686858U, 0x5142f60dbeb16feU, 0x3b225e2e217fc757U,
  0xa332dbf322e519caU, 0x26d2a13a17b3fd9eU, 0xed43c9dbd4ce6cebU, 0xedde7f55c4986020U,
  0xa20f55fb13837f2fU, 0x41e3fa20e6d02bceU, 0x4d09a4e8d8f22544U, 0xfe4e3f6e8d4270dU,
  0xf9ae11e23abf1c02U, 0x33e5cd2331f57fd6U, 0x29fffe1424e121f1U, 0x2a080624090ced22U,
  0x2a09997fd61a07fcU, 0x1009f4e7ee4d1b45U, 0x122e36e8022981c9U, 0x2a01d7a2f4ff0ce3U,
  0x18f7dbc9f4d5fc01U, 0xe4561a81f8d6133aU, 0xbbd6e5fc4c1e231fU, 0xfd2cede70e2313b1U,
  0xb51e81dd5a1a0ffeU, 0xd822d84208ff453fU, 0x64eecddd019f0c3U, 0xffab05c0460f0117U,
  0x99d21c7f1cca15eeU, 0x814344b808f531d8U, 0x22f761d6440c3941U, 0xe9dddba473002e9dU,
  0x41bfffffc03U, 0xfffffb0dffffff1eU, 0xffffff75fffffe23U, 0xfffffbdcffffffbcU,
  0xfffffb46fffffd36U, 0xfffffd7c00000313U, 0xffffffca00000190U, 0xfffffc8efffff707U,
  0xffffff64ffffff5cU, 0xfffffd9afffffc0dU, 0xfffffcf1fffffc40U, 0xfffffe93fffff9bbU,
  0x166000001faU, 0xffffff35fffffb20U, 0x15c00000243U, 0xfffffc93fffffc60U,
  0xffffff87fffff9d9U, 0x300fffffd51U, 0x5bdfffffe53U, 0xfffffc60ffffff4dU,
  0xfffffe610000000aU, 0x18bfffffcb1U, 0xfffffe8dfffffcc1U, 0xc2fffff9fbU,
  0xffffff0bfffff9aeU, 0x74fffffd6eU, 0xfffffba2fffffb43U, 0x127000001caU,
  0xfffffda1fffffd55U, 0xfffffd3d00000422U, 0xfffff9fefffff82eU, 0xfffffd61fffffe66U,
  0x1b9ffffff6cU, 0xffffff9e000002afU, 0xfffffe37fffffe2cU, 0xfffff937fffff6b8U,
  0xfffffb77fffffebaU, 0xfffffe1a0000011dU, 0xfffffa34fffffda9U, 0xfffffd99fffffbdbU,
  0xfffffbb700000145U, 0x2e20000011cU, 0x9a00000006U, 0xfffffb2afffffcfeU,
  0xfffffebbfffffd37U, 0xfffffe4cffffff08U, 0xffffff22fffffef4U, 0x5bfffffd85U,
  0x4126536bd7f921f2U, 0xc448888155a6f59dU, 0x8177b0112ba9e4ebU, 0x817fe320812de727U,
  0x496e053e31da2967U, 0x94a03940d7b7f921U, 0xa6056d69d81f21e7U, 0x217f41e157d63a03U,
  0x6f34586b7f4c7042U, 0xf7144a2672e238beU, 0xf404bf1a260231U, 0x132781a70f7f508aU,
  0x2b42641fd383d82aU, 0x9d7f9ec25e98aeb6U, 0xf557d007e6abafdfU, 0x4b54b431b2072a33U,
  0x9fd122253aa7f2cU, 0x81343cc2ba9f1108U, 0x8107001212303ceeU, 0x3c3663bb1f933fefU,
  0x7fdb25633ffb06d5U, 0xb7817f1145342381U, 0xd619faab0915dad4U, 0x4e58a4bbb5370aaeU,
  0x245a3f7fa64446e9U, 0x8136cd1e7f81bf2fU, 0xd45e980981e8b4b6U, 0x223ab1fb5f30c32U,
  0x467f00160ec71018U, 0xa6bd21be24ef1b5cU, 0xb3877f4f3e2610fcU, 0x35476aa838302708U,
  0x7e19f22044c4172dU, 0xdd0a43a428fd7fa1U, 0x103f2af3fb93b7d9U, 0x3ae3eade02730d8eU,
  0x413b7ff2c9937f08U, 0x51282cc3214a0888U, 0xaad0ed27621ed088U, 0xdd7271e7e9567f81U,
  0x7fbcbb6524063a5bU, 0x3d0f6872981966fbU, 0x3956c77f058f4e7fU, 0xd8e6227f696b81cfU,
  0x43436842f2357f9aU, 0xdc3079e87fb72ce1U, 0xd77f8100a519e3dbU, 0x2c0530f889007f81U,
  0x53f85a34c6003199U, 0x2431a6dbfd2e2a15U, 0xff4b81f40ffbc981U, 0x4b7f1de80558fec4U,
  0xab0fc840f0cb6135U, 0x557f6181811e7fcaU, 0xecd037c0d815b45U, 0xfabe6cfd7f6d532bU,
  0x57347f7f11d54898U, 0xdd432a814a281445U, 0xe46bad53b581f6a8U, 0x34810dec35057df1U,
  0x7f555d3709787a81U, 0x3c1308fd3724387fU, 0xaa7ff9812c29c1baU, 0x5624b71b2f3ec5fdU,
  0x55f1817fc9170b24U, 0xb287faa04933781U, 0x3ed3ed55efd0236eU, 0x81c343ca6c7f5e81U,
  0x573d55f95881f381U, 0x5f699724ae15a1U, 0xad72c38181f7df81U, 0xedaee69b7cf1758dU,
  0x6ad5fde6b4b1f60aU, 0x507f9418ec43af47U, 0xdd949e169d81f255U, 0x4b1fcac753301ae3U,
  0x6e2cb352810d09feU, 0x136a1060b581f01cU, 0x5851e915b0473cf3U, 0xd145481d134c30abU,
  0x1649293f5d970f02U, 0xbce156d47cee34ebU, 0x7f57315baa148139U, 0xd2e3b3c781be6a37U,
  0x4b2a299bdb814c2aU, 0x2c5b81aa5432401eU, 0xf6eae7188be7c531U, 0x6563dd810c7fe0dbU,
  0xc2cf217ab8161ebU, 0x620e2cb68df103fcU, 0x3f5bb65ddf3c7fa6U, 0xd15c7f3fe05f68bfU,
  0x7c9842531c18ae03U, 0x81a3669f5b5902d0U, 0xe77c9d360985c0f9U, 0x8133aad6c8b40872U,
  0x247f074b81e91a49U, 0x6c3387f344368150U, 0x272720fa510b8178U, 0x531081a75065b1a6U,
  0x5746df0fdadbef7fU, 0x466939c0cb951022U, 0x367fb147812c161cU, 0x2a636a2e26505acaU,
  0x4881df3b510695a4U, 0xd6394d97098177c6U, 0x6c50ac15168cea21U, 0x890ee18152d01436U,
  0xffffefbeffffffa3U, 0x94d00000724U, 0xffffee11fffffd46U, 0xfffff52efffff41dU,
  0x4c1fffffebcU, 0xfffff5bc000000c3U, 0x1160000007daU, 0xfffff5dafffff7eaU,
  0x10bd00000259U, 0x34d00000a42U, 0xe88fffffef8U, 0x485fffff423U,
  0xfffff90600000321U, 0x1ffffffa6aU, 0xe9e0000012aU, 0xfffff8c4fffff0d4U,
  0xfffff517fffff8e9U, 0x244000003b0U, 0x7b0fffff1abU, 0xfffff962fffff85cU,
  0xfffff7d1fffffb4eU, 0x80100000b4eU, 0xfffff45bfffffc65U, 0xfffff5e2fffffa7dU,
  0xfffff237fffffb7fU, 0x385fffff895U, 0xfffffea1fffff331U, 0xfffffcacfffff8c7U,
  0xfffffc86000003b2U, 0xfffff546fffff938U, 0xffffed73fffffa3dU, 0x78fffff427U,
  0xfffff92b000005feU, 0xffffefd30000008bU, 0xfffff2f4fffff406U, 0xfffff57ffffffd55U,
  0xfffff9e5000009b2U, 0xffffeb8200000175U, 0xfffff4a600000bbcU, 0x450fffffc2cU,
  0x59f000000f4U, 0x7d5000005b8U, 0x8e000000000U, 0x2c3fffff1f9U,
  0xfffff32b0000002fU, 0xffffff45fffff600U, 0xe8900000c6eU, 0x129fffffc77U,
  0x18b0213202eb4631U, 0xd2023d0f61a3d3dU, 0xde081635dce47013U, 0x4dd8df1a3acb4508U,
  0xf8b843d2d8f8c1ffU, 0xe9f0d3a92d3ad8d9U, 0x16fd58340dc981dfU, 0xf5bbe91e3303192dU,
  0x2839261ff254040dU, 0xa7fb502d230e22acU, 0x189dcee640a5fbdeU, 0xf9dff83d31df78ffU,
  0xad2ee965a03d5b04U, 0xe5361ab6cf648f4eU, 0x24383b8e9c6efeaU, 0xb2aaa7d209e24873U,
  0x2af8ac1e3d198697U, 0xfe5b95a33c81fe02U, 0xab79585b21f31d0dU, 0x11e2a1feef28eb1eU,
  0xeddf15cdcb17fdc1U, 0xc8511de1e7eed3f8U, 0xeeff51f08f403deU, 0x46e7aac53d3b423eU,
  0xa8019eb9c971e6a5U, 0x3280144eff2f183U, 0x2629d3b2b9bf8122U, 0xb509e7e225fee41aU,
  0x295633ccf7f0db16U, 0x24b3006d5e85430cU, 0x376a313ebef4dc01U, 0x31eddd3e0c942d37U,
  0x42d25f217520993U, 0xe617a7edd305b5d0U, 0x11178cd2ad5848cfU, 0xe22beb0c2565202eU,
  0xb7cbd4afdf5553d8U, 0x311fde1fdf18e1d7U, 0x4d3f0bb1901b034bU, 0xd43aea03cac8bef4U,
  0x1d094af2e74cc10eU, 0x1cf22af5d2b661e7U, 0xd4f6153ddacee821U, 0xc6caf262e8c0ed24U,
  0xa166fd0f1f61f4bbU, 0xf641cb21b6c21523U, 0x3eb69bcf190654f3U, 0xd52d31162c0e207fU,
  0x7b2e8d8487fa6a4U, 0xd932c6fd1c1753c6U, 0x5601edfcc016c1c6U, 0xaced0ee868b33b10U,
  0xe5e64da7e7dee12aU, 0x27e22b12249b7f22U, 0x342c0d79aacaded6U, 0x7dbf5b6bfb1d55bU,
  0x303afc4a585f15a2U, 0xc9f3bc36ddef15d5U, 0x3437b3eafc4811faU, 0x1835a051f71359U,
  0x560835114a5defe2U, 0xf5544cd5e9fffddU, 0xc3e1ff0c17ca8192U, 0xe7a323c2d03c18f0U,
  0xf3f0e1f0bead44d3U, 0x182d462f4eccac4cU, 0xad3507e3b1d04500U, 0x6c3b6a94e9fa3003U,
  0xf5ba521b9a84ef40U, 0xedba65836037bbfeU, 0x435fffad690f48ccU, 0xf00dc1bdccf82594U,
  0x121d1cec3c1a05dfU, 0xd13d1d1a3a811a03U, 0x4d29e6ce0128c5c6U, 0xeae3300ac132d2f0U,
  0xc519e8e9d5b53012U, 0xdfe02c60cdade906U, 0xbe0decfc07bb3b27U, 0x10f2fde6f606b4d6U,
  0xe004e02a239bb618U, 0x23eef0de2520e1fbU, 0x2011231931280a1fU, 0xf12ddfc9b4b6d80bU,
  0xf4eaf5d9fcea3f24U, 0x2121bf0fc5b8fd31U, 0xdb44f8fed41f2720U, 0x20fb220ad42a0afbU,
  0xf809f2ec850300e7U, 0x19e6210e1de813e3U, 0xd5e8ee1908f8fdfaU, 0xd5d41841e9fee528U,
  0xa416ca542230d0e2U, 0xb5abcf1f3d2150cU, 0xeda9bf191a111516U, 0x840ff51907efd57fU,
  0x12d7e5d0ef0fcbedU, 0x41ccf872aee82fb7U, 0xaef7260710e9f602U, 0x40253adf0612d715U,
  0x222813d3c8ff0a08U, 0x5ad655e5161ceb1dU, 0x542211d0fbe500ccU, 0x194c7f14efb04becU,
  0xd2e64d011e1e23b6U, 0x3702e49ef9db33e1U, 0x13bdbef3e7e924b5U, 0x8a2d550d0c28e350U,
  0xe3dbd91d23f02ebfU, 0x8d01c05503e14b7U, 0x3cdeee2714d7ed03U, 0xfebdcfddb5e1d8d8U,
  0xf7d627545db1ff1bU, 0xd2ead62ce5fbcaf0U, 0x2527d4cf8c370602U, 0x1a0ce5ba201af810U,
  0x2c150b96be0cbaf8U, 0xe6d60b5d781f8137U, 0xfb2551c2e52bc9e4U, 0x7b0ad937ceef2799U,
  0x2130c4ba8104eec1U, 0xf8eeb14bede6f8f5U, 0xea33bb08f919a0bfU, 0xdc3c3bf1cf25d92bU,
  0xc6acde6e2c90d0eU, 0x1adc4d15c9d3380dU, 0x807c31b15013eceU, 0xda3def55c0b8ee15U,
  0xdfaed35d2ce4eee4U, 0x400ba9ddb8b941f0U, 0xe135cfffd85bf916U, 0x9c3b01c5fc26a458U,
  0xcd2bdaebdee762f4U, 0x37fd13f0ed0dded3U, 0xc5d5ebe8f2c64b5cU, 0xe7edfdefbdcaa2b8U,
  0x59eb3902042bda24U, 0x1d1c0debe5c2ecffU, 0x1afe16b7a2351121U, 0x19c613d83421042bU,
  0xb529f316034ad10aU, 0xf2c1508001dc23aU, 0x43b42d1c2cdb38d2U, 0xee31427ff9fa4a12U,
  0x2a051b0dd3f96a29U, 0xc0cbc628a2a6201cU, 0xfa7f18ca1f0e4327U, 0x5ee70218245234fcU,
  0x2ff3e30b08e39ffbU, 0x22acc7c3e43fdffdU, 0x2639d50f321604e1U, 0xf9c60f391ede2b0eU,
  0xdae7ccf541ff97e9U, 0xc049dfe6192c10b9U, 0xa88cf920e909e51dU, 0xa4f1d904f11ffb65U,
  0xafa0c19b41bfe22U, 0x3533a322edebcf01U, 0xc41dcb001eb3d8bbU, 0xad6183e04fb393fU,
  0x2e2405b881d909ccU, 0x4000121c04e8e5ecU, 0xa4911e708e4efe7U, 0xcf75a2537f01aedU,
  0xe0054509d62003efU, 0x291bdcd1dcf5d2cbU, 0x20ccfd08fb020809U, 0xe535db04ec34082dU,
  0xefca5e1df875d020U, 0xf95e142ce512287eU, 0x1c0eadf82716cad1U, 0xe204cd4243af260dU,
  0x9ce128fea52f2bf3U, 0x42afd0c44f4540aU, 0x9fc60f7b4081db10U, 0x317b9f58b05f6e9U,
  0xe7450c2b51234d05U, 0xcf220b2e9a2b3ee9U, 0xef3d9173e3ef608U, 0x390c0aa3ac5f45dU,
  0x70346224b3217ffU, 0xb90c02d30445f949U, 0xee17fd231fcbfcefU, 0x1cca23da3acc4b27U,
  0xcca5445b572327a7U, 0xcd01ad9647cb1916U, 0xbed05f6fefdef956U, 0x3821e6b9a1ff37d9U,
  0x522027bbe71b230fU, 0xeb0b6eb5072311b6U, 0x512ecc20309d8c5U, 0x39d3eea67f003bddU,
  0xf1e4c5f3c0ed9de5U, 0xd8112e7ee74e4ddU, 0xf9d3343ebe281c04U, 0xf85bffd72f40fe26U,
  0x1b340f387cfd0ce8U, 0x3af7d5eb13251a1eU, 0x5b1613dafa60e5c9U, 0xf6791eed0fdd3604U,
  0x429f14d6c51d5025U, 0xf0f8dbdae3be3fbeU, 0xe52cc81aacfbeaedU, 0xf8122c09063b0aebU,
  0x20238ad4ae731cbU, 0x9cf44054168150feU, 0x242a3a0b19f411f5U, 0x204a3da1b721c4e6U,
  0x25defb2d34f432eeU, 0xebcaffd1b9d9144bU, 0x19eae5e334040350U, 0xe5400fe594f3fdfcU,
  0xef08eeec34a6b817U, 0x1e0b37cc22260542U, 0xebfd10eb2517ef3cU, 0xe8133341f7ea01f7U,
  0x34c5e5ebf23aedd1U, 0x2fea0efdd6fb14afU, 0x91f63d39f00cb7f8U, 0xf8f453c238d91d0aU,
  0x45d92bd4c33c18f6U, 0x54053efa4be32731U, 0x2b0c3dfba111ecd9U, 0x44117fcf2ca52d03U,
  0x18e4291fe43411f0U, 0x22e217abfd07128eU, 0x34f3c2bf020d51d6U, 0xc43346ef2548361aU,
  0x473907f7e2e31723U, 0xfe190cedf2d1ebe4U, 0xae123f293ea04d12U, 0x4bed57ad183609cbU,
  0x41d22deef53d1bc4U, 0x2cf025a24713b94cU, 0xede42ddbeb1df51fU, 0xe1b7fe21acd42fcU,
  0xd1f555d7bbeef302U, 0x23f860be21530bcaU, 0x4fcbc60a29ad36cbU, 0xa815f270001978e7U,
  0xef4ff110f00db0aU, 0x2b18fce34512d42bU, 0xdd81bc0e33fc1bf5U, 0x1adcc848e5aeecc8U,
  0x1af60bda9de724d1U, 0x2e3a1efdf7f6fa15U, 0xccba17c3b3c8fbfbU, 0x241007b03348e500U,
  0xe1f9401afc0a474aU, 0xefd33907f80c2ac0U, 0x4d1eed141fad25fdU, 0x361d0fd606a7eac7U,
  0xb096e9d2f77febc8U, 0x2122271a3b3718b8U, 0x5fe3c010ae23bb12U, 0xcdddeb0e5183102eU,
  0xb10558cffcfa0460U, 0xb9fdfb7e02f820caU, 0x2aeb275089f0f2f3U, 0x2cf8f4130fe9f303U,
  0x4a5df7060c425bdeU, 0xf0b2c8540fced9adU, 0x1f2818d0b6f317ceU, 0x36d90bc5ffd2fed1U,
  0x951bd0f34206e31aU, 0xf6e90ec6602d0eebU, 0x11daf90b1de40832U, 0xb315ebc18126c207U,
  0x2c38b53a71ad2669U, 0xd1dd094ad320fcd8U, 0x2d0bb9aba57d0ff5U, 0xd010b01f1df9e728U,
  0x405cadab8039a4bU, 0xefe1be5affb49860U, 0x37190c9b159ef8U, 0x17e90063be1d09a5U,
  0xb8eefbe7d0f62c3cU, 0x37ca9950fac7c6f6U, 0xf018e32e18dd2ae5U, 0x2e312f4f4102f70eU,
  0x1536a1c0cefff657U, 0x29b1165fac45cfa2U, 0x4a24d4afd2eec3ceU, 0xfed651726a0ef326U,
  0x10f221273bef13abU, 0xfcda8114f9bfd9fcU, 0xdab1573a8cf8f922U, 0xce3433fb8d1ecd29U,
  0xe292c670cecd642U, 0x17facf0b4322bc3eU, 0xea9fd20a51e517dbU, 0xe1fce217e7fbf534U,
  0xdc19bee1f01a39beU, 0x33462708c405cbd2U, 0xd2fcc095130428ddU, 0x20100fd75a71d1f6U,
  0xcbef2f11bfdc2f0bU, 0x31f12d0f07f41406U, 0xf15205321bdf324U, 0x2be5f9b5cb8111e9U,
  0x505c71bd4ccc6e4U, 0xdfc6f3bf025bf3edU, 0xe1f8e516f51b0d25U, 0xdc01d6d3d70cf323U,
  0x351ade447fe70528U, 0xe207edebe30a20d2U, 0x28280c09f74ed8e3U, 0xdd18b02806f30f26U,
  0x3bdbdfd4db11040fU, 0xd3fdc422cdeaf6fbU, 0xd530f9ffb32fcceaU, 0x20f1ea12284af5e5U,
  0xe243ecddffe906f1U, 0x5e06e619282ffaedU, 0xefaae9f11f1e7f5dU, 0xeafdb938a4c1cad5U,
  0x31e646f2ae2ed0efU, 0xff462d0cffe741e4U, 0xdac811b3e5c8070eU, 0xc2e5c8e32147c62eU,
  0xa72ce11c065023f3U, 0x2d2f0f55e9c43702U, 0x52f00a202fb718e7U, 0xf52606231ad30003U,
  0xd1f51d3ca320e413U, 0xe005adfff117ca67U, 0x391b90df3413c0c3U, 0x8e8dc3c330d3837U,
  0xf8449716ebcbf0f9U, 0x2317f414d80c0ac5U, 0x1041d7f54b00f7baU, 0xf3d1b32c062fe20bU,
  0xddb0520e7ef41e1U, 0xc41fba2dcb0fffe5U, 0xc72f27201335da06U, 0x1a1be581caecc022U,
  0xfec2c4d84d83e73eU, 0x79c031cdd2b3806U, 0xecf26b5ae9797f54U, 0x3558c1241afdcfd7U,
  0xb9be1e1c5053d52fU, 0x26b1bcb613701af0U, 0x1ecd050d0ae1a714U, 0xbf15d42f01271eecU,
  0x4131e7df692c2ae8U, 0xf3ed243defd25924U, 0xc8b61e27a5eeb70cU, 0x25e372382b010be5U,
  0xffcd113112ea0a3bU, 0xefe1f0f5fe87143eU, 0x342de53e35361ca8U, 0x36bc1d31f93c1847U,
  0xd02b1bc7a0f91f3fU, 0x3ae20054ee20b8d6U, 0xe0e99e8f5e201a1U, 0xecd6b2468ed13acU,
  0x21bc45fd11def107U, 0xebe9d1c84811efc2U, 0xd1c019371626da40U, 0xf108090181f7fa1aU,
  0xbe291c51eb242a30U, 0x1e30d8b1c5498151U, 0x72cbab6eddbf1ebU, 0xd9aec510ed024b1cU,
  0x3dec1c0fc1dce7a3U, 0x946c3e51ed7dfceU, 0xde0941131807eb2cU, 0x24a8c4101654f010U,
  0xc71af9dfbc502ddcU, 0x296a15d2da1bf215U, 0x29f7ed185ee541f0U, 0xfe32b2f136200a57U,
  0xe77ff4c5b7e2c5d2U, 0x2cd7e5f30e42bbd2U, 0xd5a20a22bfc81028U, 0xf747081ebcedc7e6U,
  0x4f03c9f7e6042acdU, 0x2c394606d9e34035U, 0xd6ed16a516295e35U, 0xe7e613e0ee12ce1eU,
  0xb50b06f1c802f335U, 0x230bf63ab70e2070U, 0x5847f63034d52aeeU, 0xfc43123209ffbddaU,
  0x1152fffff7cbU, 0x29b00001274U, 0x4c00000029eU, 0x9b2000004f3U,
  0x43400000371U, 0xfffff6db000011c3U, 0xf7700000230U, 0xfffff8ebfffffff4U,
  0xfffff286fffffdc9U, 0xfffff2920000001aU, 0x4a20000076cU, 0xae900000386U,
  0x60cffffff18U, 0xeb2ffffff22U, 0x2c3ffffef7fU, 0x16e000007ceU,
  0xec166158485a4c46U, 0x5b4847bb5a9d38f9U, 0x9eb258362768cabfU, 0xe957d581b92195d3U,
  0x1b74d5284f22a905U, 0xc6f68bf64ddb5be1U, 0x284457db819d67a2U, 0xe6880d47ca3ec1c2U,
  0xbfa7b5ebc0c2530aU, 0x4640b2aedbcc2581U, 0xc00c0e4f9ca2b34eU, 0x3637a23e5a3c6538U,
  0xe8213dfbb49f98caU, 0x2b3fcba4ba7f8868U, 0xbba8aa602746714cU, 0x6381d01cca1fae39U,
  0x7d1db4ec67706197U, 0xaea83f777f64f70cU, 0x23629499c5bd1701U, 0x5949d2a5361250baU,
  0x23d3048cc09cc267U, 0xd69c7f3f78abda4bU, 0x6bcea364612df505U, 0xf5f75d25ea559472U,
  0x117965b3a1c5503dU, 0x4d234471d7c62890U, 0xd8d2b3da0f973489U, 0x81585f8c5890932eU,
  0xaf213a34b842ca9cU, 0xa8ce408abd45532dU, 0x596c6d2f81158f5dU, 0x1f84569b69d25a3fU,
  0x98b20be7adfa113cU, 0x7290d3530cb54e25U, 0xc0e4c79f59454a5cU, 0x9bc507499a81398eU,
  0x5cd0a4796a5d2d3eU, 0x14786d61a2538173U, 0x67a231c1ac5e983bU, 0x8c004f3e65a919a1U,
  0xfffffe1cffffff67U, 0xfffffd0200000181U, 0xd000000026U, 0xfffffecdfffffc35U,
  0x2e9000003f9U,
};


ai_handle g_my_network_weights_table[1 + 2] = {
  AI_HANDLE_PTR(AI_MAGIC_MARKER),
  AI_HANDLE_PTR(s_my_network_weights_array_u64),
  AI_HANDLE_PTR(AI_MAGIC_MARKER),
};

