// Auto-generated model file for EfficientNet
// Model size: 12000 bytes

#ifndef EFFICIENTNET_MODEL_H
#define EFFICIENTNET_MODEL_H

const unsigned int efficientnet_model_len = 12000;
const unsigned char efficientnet_model[] = {
  0x1c, 0x00, 0x00, 0x00, 0x54, 0x46, 0x4c, 0x33, 0x14, 0x00, 0x20, 0x00,
  0x1c, 0x00, 0x18, 0x00, 0x14, 0x00, 0x10, 0x00, 0x0c, 0x00, 0x00, 0x00,
  0x08, 0x00, 0x04, 0x00, 0x14, 0x00, 0x00, 0x00, 0x1c, 0x00, 0x00, 0x00,
  0x8c, 0x00, 0x00, 0x00, 0xe4, 0x00, 0x00, 0x00, 0x74, 0x0d, 0x00, 0x00,
  0x84, 0x0d, 0x00, 0x00, 0xf4, 0x2d, 0x00, 0x00, 0x03, 0x00, 0x00, 0x00,
  0x01, 0x00, 0x00, 0x00, 0x04, 0x00, 0x00, 0x00, 0x22, 0xf2, 0xff, 0xff,
  0x0c, 0x00, 0x00, 0x00, 0x1c, 0x00, 0x00, 0x00, 0x3c, 0x00, 0x00, 0x00,
  0x0f, 0x00, 0x00, 0x00, 0x73, 0x65, 0x72, 0x76, 0x69, 0x6e, 0x67, 0x5f,
  0x64, 0x65, 0x66, 0x61, 0x75, 0x6c, 0x74, 0x00, 0x01, 0x00, 0x00, 0x00,
  0x04, 0x00, 0x00, 0x00, 0x90, 0xff, 0xff, 0xff, 0x18, 0x00, 0x00, 0x00,
  0x04, 0x00, 0x00, 0x00, 0x08, 0x00, 0x00, 0x00, 0x6f, 0x75, 0x74, 0x70,
  0x75, 0x74, 0x5f, 0x30, 0x00, 0x00, 0x00, 0x00, 0x01, 0x00, 0x00, 0x00,
  0x04, 0x00, 0x00, 0x00, 0x2e, 0xf2, 0xff, 0xff, 0x04, 0x00, 0x00, 0x00,
  0x0f, 0x00, 0x00, 0x00, 0x6b, 0x65, 0x72, 0x61, 0x73, 0x5f, 0x74, 0x65,
  0x6e, 0x73, 0x6f, 0x72, 0x5f, 0x32, 0x33, 0x00, 0x02, 0x00, 0x00, 0x00,
  0x34, 0x00, 0x00, 0x00, 0x04, 0x00, 0x00, 0x00, 0xdc, 0xff, 0xff, 0xff,
  0x1b, 0x00, 0x00, 0x00, 0x04, 0x00, 0x00, 0x00, 0x13, 0x00, 0x00, 0x00,
  0x43, 0x4f, 0x4e, 0x56, 0x45, 0x52, 0x53, 0x49, 0x4f, 0x4e, 0x5f, 0x4d,
  0x45, 0x54, 0x41, 0x44, 0x41, 0x54, 0x41, 0x00, 0x08, 0x00, 0x0c, 0x00,
  0x08, 0x00, 0x04, 0x00, 0x08, 0x00, 0x00, 0x00, 0x1a, 0x00, 0x00, 0x00,
  0x04, 0x00, 0x00, 0x00, 0x13, 0x00, 0x00, 0x00, 0x6d, 0x69, 0x6e, 0x5f,
  0x72, 0x75, 0x6e, 0x74, 0x69, 0x6d, 0x65, 0x5f, 0x76, 0x65, 0x72, 0x73,
  0x69, 0x6f, 0x6e, 0x00, 0x1c, 0x00, 0x00, 0x00, 0x8c, 0x0c, 0x00, 0x00,
  0x84, 0x0c, 0x00, 0x00, 0x6c, 0x0c, 0x00, 0x00, 0x34, 0x0c, 0x00, 0x00,
  0xe4, 0x0a, 0x00, 0x00, 0x54, 0x0a, 0x00, 0x00, 0x44, 0x07, 0x00, 0x00,
  0xd4, 0x06, 0x00, 0x00, 0xec, 0x05, 0x00, 0x00, 0x7c, 0x05, 0x00, 0x00,
  0xec, 0x03, 0x00, 0x00, 0x9c, 0x03, 0x00, 0x00, 0xfc, 0x02, 0x00, 0x00,
  0xac, 0x02, 0x00, 0x00, 0xec, 0x00, 0x00, 0x00, 0xe4, 0x00, 0x00, 0x00,
  0xdc, 0x00, 0x00, 0x00, 0xd4, 0x00, 0x00, 0x00, 0xcc, 0x00, 0x00, 0x00,
  0xc4, 0x00, 0x00, 0x00, 0xbc, 0x00, 0x00, 0x00, 0xb4, 0x00, 0x00, 0x00,
  0xac, 0x00, 0x00, 0x00, 0xa4, 0x00, 0x00, 0x00, 0x9c, 0x00, 0x00, 0x00,
  0x94, 0x00, 0x00, 0x00, 0x74, 0x00, 0x00, 0x00, 0x04, 0x00, 0x00, 0x00,
  0x1a, 0xf3, 0xff, 0xff, 0x04, 0x00, 0x00, 0x00, 0x60, 0x00, 0x00, 0x00,
  0x0c, 0x00, 0x00, 0x00, 0x08, 0x00, 0x0e, 0x00, 0x08, 0x00, 0x04, 0x00,
  0x08, 0x00, 0x00, 0x00, 0x10, 0x00, 0x00, 0x00, 0x28, 0x00, 0x00, 0x00,
  0x00, 0x00, 0x06, 0x00, 0x08, 0x00, 0x04, 0x00, 0x06, 0x00, 0x00, 0x00,
  0x04, 0x00, 0x00, 0x00, 0x01, 0x00, 0x00, 0x00, 0xeb, 0x03, 0x00, 0x00,
  0x0c, 0x00, 0x18, 0x00, 0x14, 0x00, 0x10, 0x00, 0x0c, 0x00, 0x04, 0x00,
  0x0c, 0x00, 0x00, 0x00, 0x63, 0x44, 0x4a, 0x04, 0x4f, 0x33, 0xda, 0x62,
  0x02, 0x00, 0x00, 0x00, 0x02, 0x00, 0x00, 0x00, 0x04, 0x00, 0x00, 0x00,
  0x06, 0x00, 0x00, 0x00, 0x32, 0x2e, 0x32, 0x30, 0x2e, 0x30, 0x00, 0x00,
  0x86, 0xf3, 0xff, 0xff, 0x04, 0x00, 0x00, 0x00, 0x10, 0x00, 0x00, 0x00,
  0x31, 0x2e, 0x31, 0x34, 0x2e, 0x30, 0x00, 0x00, 0x00, 0x00, 0x00, 0x00,
  0x00, 0x00, 0x00, 0x00, 0x24, 0xd4, 0xff, 0xff, 0x28, 0xd4, 0xff, 0xff,
  0x2c, 0xd4, 0xff, 0xff, 0x30, 0xd4, 0xff, 0xff, 0x34, 0xd4, 0xff, 0xff,
  0x38, 0xd4, 0xff, 0xff, 0x3c, 0xd4, 0xff, 0xff, 0x40, 0xd4, 0xff, 0xff,
  0x44, 0xd4, 0xff, 0xff, 0x48, 0xd4, 0xff, 0xff, 0x4c, 0xd4, 0xff, 0xff,
  0xce, 0xf3, 0xff, 0xff, 0x04, 0x00, 0x00, 0x00, 0xb0, 0x01, 0x00, 0x00,
  0x56, 0x06, 0x40, 0xe7, 0x1b, 0x87, 0x96, 0x13, 0xe6, 0x58, 0x1f, 0x63,
  0x3a, 0xca, 0x30, 0x0a, 0x04, 0xb9, 0x17, 0x4a, 0xec, 0x2f, 0xa2, 0x35,
  0x0b, 0xa8, 0x81, 0x12, 0xe3, 0xd1, 0xcd, 0xcb, 0x6b, 0x02, 0x49, 0x27,
  0xa3, 0xfe, 0xfe, 0x00, 0x23, 0x4b, 0x4b, 0x34, 0x7f, 0xa8, 0xe4, 0x90,
  0x36, 0xab, 0x2c, 0x6c, 0xc0, 0x19, 0xd2, 0x05, 0xfe, 0xbb, 0x21, 0xf8,
  0x07, 0x28, 0x3b, 0xc9, 0xc9, 0xce, 0xeb, 0xae, 0xbb, 0xd3, 0xa2, 0xd2,
  0xbb, 0x81, 0x17, 0xeb, 0x84, 0xec, 0xfb, 0x04, 0x4c, 0x2f, 0xbd, 0xd5,
  0x7f, 0x72, 0x0b, 0xab, 0x51, 0x0a, 0x85, 0x1c, 0x37, 0xe5, 0x00, 0x4e,
  0xd3, 0xe8, 0xd2, 0x79, 0x55, 0xff, 0x0f, 0x02, 0x6b, 0xcf, 0x3d, 0x13,
  0x40, 0xe6, 0x0d, 0x2f, 0x57, 0x13, 0xe1, 0x5c, 0x67, 0x3c, 0x74, 0xee,
  0xe9, 0xcf, 0x1a, 0xd8, 0xf4, 0x92, 0x81, 0xf5, 0x93, 0xfb, 0xc5, 0x19,
  0xc0, 0xf8, 0xfa, 0x44, 0xb9, 0x5a, 0xa2, 0xbb, 0xbd, 0x91, 0xcc, 0xf4,
  0x30, 0x08, 0x62, 0xea, 0x81, 0x28, 0x07, 0x85, 0xb4, 0x5b, 0x00, 0xea,
  0xce, 0x15, 0xd2, 0x9f, 0xf8, 0xe7, 0xde, 0x03, 0xb2, 0x0e, 0x4f, 0xcf,
  0x7f, 0xf3, 0x6f, 0x8c, 0xe7, 0xe7, 0xed, 0xd7, 0x1b, 0xe5, 0x28, 0xdc,
  0xb3, 0x0d, 0xbf, 0xc8, 0x13, 0xd2, 0x51, 0xd1, 0x1f, 0x10, 0x22, 0xc7,
  0x10, 0x34, 0xbc, 0x87, 0xd2, 0xf4, 0x9b, 0x05, 0xf0, 0x12, 0xb8, 0x4d,
  0x99, 0xaa, 0x81, 0xe4, 0xae, 0x09, 0xda, 0xd0, 0xe8, 0x15, 0xae, 0xfb,
  0x57, 0x06, 0xcb, 0x1d, 0x56, 0x5e, 0xbf, 0xbc, 0xe3, 0xe7, 0x23, 0xd9,
  0x0d, 0xaf, 0x3a, 0x81, 0xaf, 0xb0, 0xca, 0x1d, 0xa8, 0xf8, 0xda, 0x56,
  0xfa, 0x0b, 0x25, 0xb0, 0xe3, 0xfd, 0x22, 0xc7, 0x99, 0x18, 0xe2, 0xd3,
  0x94, 0xf0, 0xef, 0xf2, 0xf1, 0xa6, 0xb9, 0xb4, 0xcf, 0xfc, 0x9c, 0x81,
  0x14, 0xf2, 0xb3, 0xe2, 0x8e, 0x22, 0x44, 0xae, 0x25, 0x07, 0xe1, 0xf0,
  0xe4, 0x52, 0x06, 0x99, 0x81, 0xc0, 0xc8, 0xa3, 0x81, 0xd3, 0xe4, 0x89,
  0xf0, 0x06, 0x4e, 0xcd, 0xce, 0xdf, 0x0a, 0x67, 0xf4, 0x4a, 0xfa, 0x2d,
  0xc1, 0x18, 0x76, 0xfb, 0x42, 0xf2, 0x0c, 0xd1, 0x5c, 0x3d, 0x33, 0xaf,
  0x9f, 0x9b, 0x32, 0x57, 0xe6, 0x56, 0x1f, 0xde, 0x1d, 0x8f, 0x81, 0xe0,
  0x28, 0xc1, 0x0b, 0xe2, 0xb2, 0x32, 0xe1, 0x81, 0xc2, 0xc6, 0x3e, 0xd4,
  0xe6, 0xc2, 0x2c, 0x22, 0xc5, 0xc0, 0xdd, 0xa6, 0x0b, 0x0b, 0xe4, 0xdd,
  0x1b, 0xec, 0x86, 0xe5, 0xfe, 0xcb, 0xef, 0xfb, 0x81, 0xc8, 0x1e, 0xbd,
  0x51, 0x53, 0x15, 0xc4, 0x26, 0x03, 0xc5, 0xb9, 0x2a, 0x21, 0x17, 0x6e,
  0x22, 0x3a, 0x17, 0xca, 0x0e, 0x0e, 0x81, 0x08, 0xc8, 0x98, 0xf2, 0xff,
  0xf0, 0x3a, 0x95, 0xa8, 0x09, 0xd2, 0xae, 0x24, 0xbd, 0x56, 0x2b, 0x30,
  0xe2, 0xfc, 0x67, 0xfa, 0x6c, 0x68, 0x27, 0x30, 0x48, 0x60, 0x67, 0x60,
  0x30, 0xf5, 0xd7, 0x01, 0x54, 0x5c, 0xd4, 0xb7, 0xe8, 0x2e, 0xbe, 0x0d,
  0x2d, 0x63, 0x7f, 0xaf, 0x2f, 0x16, 0xcb, 0xc3, 0x2e, 0x02, 0xe7, 0xfe,
  0x8a, 0xf5, 0xff, 0xff, 0x04, 0x00, 0x00, 0x00, 0x40, 0x00, 0x00, 0x00,
  0x83, 0xd7, 0xff, 0xff, 0xa6, 0x7e, 0xff, 0xff, 0x10, 0xf2, 0x02, 0x00,
  0x9b, 0x86, 0xfe, 0xff, 0x26, 0x51, 0x00, 0x00, 0x6c, 0xcc, 0x01, 0x00,
  0xa6, 0xe4, 0x00, 0x00, 0x9e, 0x25, 0x03, 0x00, 0x88, 0xc3, 0x00, 0x00,
  0xa6, 0xd1, 0x03, 0x00, 0x4b, 0x9b, 0x02, 0x00, 0x31, 0xcd, 0xff, 0xff,
  0xd5, 0x91, 0x02, 0x00, 0x56, 0xf3, 0xff, 0xff, 0xf7, 0x37, 0x00, 0x00,
  0xe9, 0x65, 0xfe, 0xff, 0xd6, 0xf5, 0xff, 0xff, 0x04, 0x00, 0x00, 0x00,
  0x90, 0x00, 0x00, 0x00, 0xee, 0xd8, 0xff, 0x24, 0x60, 0xda, 0x20, 0x8a,
  0x81, 0x81, 0xf6, 0xe2, 0xdd, 0x5a, 0x65, 0xd3, 0x26, 0xa5, 0x9a, 0x1a,
  0x56, 0x62, 0x15, 0x9b, 0x38, 0x2e, 0x0a, 0xdb, 0xf5, 0x76, 0x5c, 0xb4,
  0x17, 0xd3, 0x4c, 0x89, 0x81, 0x7f, 0x0d, 0x81, 0xfb, 0x40, 0x3b, 0x9b,
  0xd5, 0x3d, 0x31, 0x81, 0xd0, 0x81, 0xca, 0xc6, 0x07, 0x9d, 0x95, 0x84,
  0xd4, 0x5c, 0x58, 0x2b, 0x1f, 0x5d, 0x25, 0xd3, 0xd0, 0xd9, 0x81, 0x2d,
  0xb8, 0x1c, 0x33, 0x50, 0x19, 0x45, 0xf7, 0x51, 0x7f, 0x0e, 0x14, 0x36,
  0xe8, 0xdd, 0x0c, 0xe9, 0xf4, 0xf4, 0x1d, 0x9b, 0x1a, 0x16, 0x0c, 0x7c,
  0xe1, 0x1a, 0x44, 0x32, 0xfb, 0x78, 0xcb, 0x88, 0x05, 0xdb, 0xe3, 0x2d,
  0x49, 0x08, 0x81, 0x04, 0x44, 0x81, 0x48, 0x0b, 0xe1, 0x3e, 0x74, 0x81,
  0xca, 0x5e, 0x63, 0x03, 0x63, 0x08, 0xc3, 0x81, 0xee, 0xa2, 0x48, 0xce,
  0x81, 0x36, 0x68, 0xa3, 0x47, 0x69, 0x7f, 0xbd, 0x81, 0xe1, 0xb9, 0xa9,
  0xca, 0xa3, 0x7f, 0xe3, 0x72, 0xf6, 0xff, 0xff, 0x04, 0x00, 0x00, 0x00,
  0x40, 0x00, 0x00, 0x00, 0xf0, 0x18, 0x00, 0x00, 0x66, 0x03, 0x00, 0x00,
  0x60, 0x00, 0x00, 0x00, 0x27, 0x26, 0x00, 0x00, 0xff, 0x01, 0x00, 0x00,
  0x4e, 0xdd, 0xff, 0xff, 0x48, 0xe0, 0xff, 0xff, 0x39, 0x3d, 0x00, 0x00,
  0xe1, 0xee, 0xff, 0xff, 0xfa, 0xed, 0xff, 0xff, 0x60, 0x0b, 0x00, 0x00,
  0x33, 0x11, 0x00, 0x00, 0x01, 0x00, 0x00, 0x00, 0x1f, 0xfa, 0xff, 0xff,
  0x04, 0xcc, 0xff, 0xff, 0xd1, 0x1b, 0x00, 0x00, 0xbe, 0xf6, 0xff, 0xff,
  0x04, 0x00, 0x00, 0x00, 0x80, 0x01, 0x00, 0x00, 0xf4, 0x59, 0x56, 0x02,
  0xe6, 0xe5, 0xb9, 0x0c, 0x0b, 0xde, 0xc4, 0xe6, 0x15, 0xa8, 0x10, 0x81,
  0x9e, 0xc9, 0x4e, 0xfd, 0x7f, 0xd9, 0xe8, 0x29, 0xad, 0x43, 0x2b, 0xe8,
  0xaf, 0x09, 0x13, 0x41, 0xcf, 0xbb, 0x8f, 0x4b, 0x0e, 0xc4, 0x3f, 0x99,
  0x63, 0xdf, 0x81, 0xdd, 0x86, 0xbc, 0xed, 0x5e, 0x73, 0x7f, 0xb6, 0x13,
  0x65, 0x53, 0x69, 0xbb, 0xd0, 0xbc, 0xcb, 0xf4, 0xfd, 0x0d, 0xc2, 0xf3,
  0xf7, 0xd2, 0xd4, 0xa7, 0xe3, 0x15, 0x4d, 0x7f, 0xc1, 0x05, 0xee, 0x20,
  0x41, 0xc9, 0xb6, 0x14, 0xf2, 0x6a, 0xe5, 0x2e, 0xf4, 0xd3, 0x04, 0x16,
  0x35, 0xf3, 0xc1, 0x71, 0x24, 0x62, 0x7f, 0xfe, 0x72, 0xc3, 0xd9, 0x2d,
  0xe9, 0x11, 0x41, 0x81, 0xf3, 0x3e, 0xe1, 0xf3, 0xe8, 0xf7, 0xe0, 0x43,
  0x37, 0x1e, 0x39, 0x2e, 0x0f, 0xc8, 0xf1, 0xca, 0xd6, 0x25, 0x5a, 0x81,
  0x11, 0x59, 0xca, 0xfc, 0xf6, 0x36, 0xba, 0x7f, 0x1f, 0x7c, 0x10, 0xdd,
  0xbc, 0x04, 0x14, 0xd9, 0x00, 0xc1, 0xb8, 0x25, 0x19, 0x7f, 0xee, 0xea,
  0x56, 0x2f, 0xd4, 0x14, 0x1d, 0xba, 0x29, 0x2b, 0x3a, 0x7d, 0x3a, 0xf2,
  0xf9, 0x28, 0xee, 0x3d, 0xe2, 0xe2, 0xd3, 0x04, 0xe2, 0x50, 0xf6, 0x10,
  0xe9, 0xee, 0xb0, 0x81, 0x37, 0x91, 0x1b, 0xe7, 0xed, 0xa6, 0xc3, 0x16,
  0x7f, 0x0f, 0x1b, 0xe9, 0xc3, 0x01, 0x2a, 0x0a, 0x33, 0xd7, 0x39, 0xa9,
  0xfc, 0x0a, 0xdb, 0x15, 0xf7, 0xcc, 0x60, 0xd0, 0x52, 0x7f, 0xbe, 0x03,
  0x77, 0x81, 0xec, 0x28, 0x15, 0xd4, 0xc3, 0x88, 0xb9, 0x0a, 0x47, 0x41,
  0x0e, 0x32, 0xd1, 0x1f, 0x16, 0xa8, 0x0f, 0xe2, 0x04, 0x16, 0x1a, 0xe9,
  0xad, 0xf0, 0x7f, 0xe8, 0x32, 0x0a, 0x2a, 0xc0, 0x7c, 0x5b, 0x87, 0x61,
  0x25, 0xed, 0xc8, 0x7f, 0x1c, 0xcf, 0xe8, 0x8b, 0xf4, 0x12, 0x39, 0xf3,
  0x81, 0xfa, 0x0d, 0x56, 0x4b, 0x04, 0xe2, 0x57, 0x13, 0xf4, 0xef, 0x1c,
  0xd5, 0x1f, 0xfd, 0x2a, 0xb6, 0xf0, 0x7f, 0xd4, 0x2a, 0x11, 0x21, 0xdc,
  0x27, 0xc3, 0x2d, 0xdb, 0xf2, 0xea, 0xba, 0x68, 0x3f, 0x24, 0xf5, 0x36,
  0x0d, 0xde, 0xf8, 0xee, 0xe1, 0xee, 0x0c, 0x81, 0xfe, 0x64, 0xc8, 0xeb,
  0x75, 0xfe, 0xe8, 0xb8, 0xcb, 0x1c, 0xec, 0xf8, 0x90, 0x14, 0x7f, 0x08,
  0xfd, 0x6e, 0xea, 0xef, 0x15, 0x06, 0x4b, 0x54, 0xf4, 0x21, 0xe4, 0x3a,
  0x30, 0xca, 0x1e, 0xed, 0x13, 0x81, 0xe6, 0x08, 0x7f, 0x4b, 0x5e, 0x64,
  0x2b, 0x57, 0x97, 0xb6, 0x7c, 0xb4, 0x3d, 0xfa, 0x40, 0xd5, 0x00, 0xee,
  0x12, 0xe5, 0xe6, 0xbf, 0xf2, 0x1f, 0xf3, 0x9c, 0x45, 0xe6, 0xdd, 0x81,
  0xfd, 0xc5, 0xf8, 0x27, 0xe4, 0xfa, 0xe4, 0xb6, 0x0b, 0x44, 0x1d, 0x16,
  0xca, 0xcd, 0xd5, 0x0a, 0x4e, 0x19, 0x18, 0x81, 0x4a, 0xf8, 0xff, 0xff,
  0x04, 0x00, 0x00, 0x00, 0x60, 0x00, 0x00, 0x00, 0x14, 0x0c, 0x00, 0x00,
  0xbe, 0xf7, 0xff, 0xff, 0x3b, 0x2d, 0x00, 0x00, 0x91, 0xdf, 0xff, 0xff,
  0x84, 0xed, 0xff, 0xff, 0xbe, 0xdf, 0xff, 0xff, 0xbc, 0xfc, 0xff, 0xff,
  0xc0, 0xe2, 0xff, 0xff, 0x1d, 0x14, 0x00, 0x00, 0x3b, 0xcf, 0xff, 0xff,
  0x0b, 0x04, 0x00, 0x00, 0xa9, 0x02, 0x00, 0x00, 0x65, 0xf3, 0xff, 0xff,
  0x76, 0xd7, 0xff, 0xff, 0x67, 0xf3, 0xff, 0xff, 0x7c, 0xd1, 0xff, 0xff,
  0x50, 0xfa, 0xff, 0xff, 0x50, 0xec, 0xff, 0xff, 0x0f, 0x05, 0x00, 0x00,
  0x39, 0xfb, 0xff, 0xff, 0x2f, 0xf7, 0xff, 0xff, 0x27, 0xe9, 0xff, 0xff,
  0xba, 0x28, 0x00, 0x00, 0x29, 0x14, 0x00, 0x00, 0xb6, 0xf8, 0xff, 0xff,
  0x04, 0x00, 0x00, 0x00, 0xd8, 0x00, 0x00, 0x00, 0x02, 0x24, 0xfc, 0x81,
  0x6f, 0x37, 0xb9, 0xaf, 0x37, 0x21, 0x33, 0xd9, 0x20, 0x9a, 0xe3, 0x23,
  0x2c, 0xa4, 0xec, 0x81, 0x7f, 0xb7, 0x81, 0xdf, 0xee, 0xed, 0x7f, 0x91,
  0xfd, 0xf8, 0x85, 0x14, 0x48, 0xb5, 0x0c, 0xd7, 0x0d, 0x4b, 0x98, 0xf0,
  0x3d, 0xd7, 0xbc, 0xcc, 0xe1, 0x8c, 0x1e, 0xd0, 0xf3, 0x81, 0x75, 0x9c,
  0x7f, 0x81, 0x0d, 0x61, 0x55, 0xe6, 0xf9, 0x24, 0x41, 0x7f, 0x05, 0xb7,
  0x0e, 0xd7, 0x81, 0x93, 0x56, 0x81, 0x17, 0xe2, 0x79, 0x34, 0x3f, 0xea,
  0x44, 0x29, 0xad, 0x81, 0xba, 0xc8, 0x7f, 0xd0, 0x00, 0xa0, 0xcf, 0x61,
  0xc9, 0x9b, 0xe3, 0xc2, 0x2e, 0xeb, 0xc6, 0x0e, 0x25, 0xf5, 0x0f, 0xd7,
  0x37, 0x10, 0x20, 0xbf, 0x0a, 0xf4, 0x78, 0x81, 0xfa, 0x34, 0xde, 0x29,
  0x19, 0xc0, 0xc4, 0xec, 0xfb, 0xdb, 0x13, 0x4c, 0x47, 0xa7, 0xbe, 0xc8,
  0x61, 0xd1, 0xa8, 0x88, 0x2e, 0x05, 0x75, 0x20, 0xca, 0xf6, 0x81, 0x7f,
  0x7f, 0xdd, 0xad, 0xfe, 0x10, 0xea, 0x28, 0x7f, 0x7f, 0x3f, 0x03, 0xe6,
  0x32, 0x06, 0x2b, 0x5d, 0x81, 0x81, 0x04, 0x02, 0x81, 0x5f, 0x91, 0x76,
  0xc8, 0xc0, 0x17, 0x4e, 0x1a, 0x3f, 0xf2, 0xd5, 0x2d, 0x27, 0x44, 0xc0,
  0x1f, 0xac, 0xfb, 0x00, 0xa6, 0xfd, 0x13, 0x94, 0xd5, 0x6b, 0x6d, 0x71,
  0xf8, 0xeb, 0xeb, 0x01, 0xea, 0x61, 0x32, 0x1b, 0x43, 0xdf, 0x29, 0xc8,
  0x21, 0xa6, 0x81, 0x34, 0x87, 0x19, 0x25, 0x25, 0xb4, 0x34, 0x84, 0x6d,
  0x71, 0x81, 0xe5, 0x52, 0x4a, 0x35, 0x2a, 0xcd, 0x9a, 0xf9, 0xff, 0xff,
  0x04, 0x00, 0x00, 0x00, 0x60, 0x00, 0x00, 0x00, 0x7a, 0xf7, 0xff, 0xff,
  0xac, 0xf8, 0xff, 0xff, 0x4d, 0xed, 0xff, 0xff, 0xe6, 0xf3, 0xff, 0xff,
  0x64, 0xfa, 0xff, 0xff, 0x72, 0x05, 0x00, 0x00, 0xaa, 0x0d, 0x00, 0x00,
  0xf6, 0xf7, 0xff, 0xff, 0xfe, 0x03, 0x00, 0x00, 0x25, 0xfe, 0xff, 0xff,
  0x43, 0x02, 0x00, 0x00, 0x00, 0x06, 0x00, 0x00, 0x1d, 0x00, 0x00, 0x00,
  0x83, 0x05, 0x00, 0x00, 0x26, 0x05, 0x00, 0x00, 0xda, 0x02, 0x00, 0x00,
  0xbb, 0xed, 0xff, 0xff, 0xb7, 0xf3, 0xff, 0xff, 0x1c, 0x08, 0x00, 0x00,
  0x8e, 0x0c, 0x00, 0x00, 0xb0, 0xf5, 0xff, 0xff, 0x1a, 0xf7, 0xff, 0xff,
  0x5a, 0xf8, 0xff, 0xff, 0x7c, 0xf6, 0xff, 0xff, 0x06, 0xfa, 0xff, 0xff,
  0x04, 0x00, 0x00, 0x00, 0x00, 0x03, 0x00, 0x00, 0xe8, 0x16, 0x1c, 0x1a,
  0xec, 0xf6, 0x13, 0xa8, 0xe9, 0x00, 0xf4, 0xf2, 0x2f, 0xed, 0x04, 0xfd,
  0x56, 0x47, 0x02, 0x0f, 0xd5, 0x81, 0xee, 0x66, 0xef, 0xfa, 0x11, 0xde,
  0xd0, 0x2a, 0x30, 0xc3, 0xe6, 0x33, 0x00, 0xd5, 0xf2, 0x1d, 0xeb, 0x14,
  0x28, 0x37, 0xcd, 0xf5, 0xf8, 0xea, 0x1c, 0x7f, 0x33, 0xd0, 0xbc, 0x0b,
  0x6d, 0xc5, 0x33, 0x87, 0x43, 0xd2, 0xbd, 0xde, 0x58, 0xcb, 0xe3, 0x9f,
  0x66, 0x36, 0xdd, 0x59, 0xf8, 0x81, 0xa0, 0xd3, 0x21, 0x3e, 0x23, 0xbf,
  0x97, 0x54, 0x1b, 0x41, 0x1f, 0x42, 0x09, 0xeb, 0xe8, 0x24, 0xff, 0xfe,
  0xef, 0x05, 0x0a, 0xed, 0x10, 0x27, 0x7f, 0xf9, 0xef, 0x51, 0xcc, 0xfd,
  0xa6, 0xd1, 0x08, 0x7f, 0x06, 0x02, 0x62, 0xbf, 0xfd, 0xfc, 0xc3, 0xb6,
  0x18, 0x1c, 0xd5, 0xdf, 0xef, 0xba, 0x11, 0x20, 0xec, 0x32, 0xcf, 0x06,
  0x48, 0xed, 0x17, 0xa0, 0xe5, 0x30, 0x02, 0x03, 0xa9, 0x57, 0xd8, 0x2e,
  0x00, 0x31, 0x61, 0xc1, 0xc7, 0x19, 0xcd, 0x7f, 0x07, 0xc6, 0xe0, 0x27,
  0x40, 0xd4, 0xdc, 0x31, 0xfa, 0xdd, 0x03, 0x45, 0xd1, 0x00, 0x0a, 0x11,
  0xa4, 0xb9, 0x4a, 0xf3, 0x25, 0x68, 0xde, 0x81, 0x30, 0x8f, 0xea, 0xce,
  0x3e, 0x29, 0x43, 0x89, 0x28, 0x43, 0xd6, 0xc3, 0x24, 0x2b, 0xcf, 0x31,
  0xa3, 0xbe, 0x81, 0x60, 0x36, 0x5b, 0x26, 0x12, 0xdb, 0xf5, 0x2b, 0x34,
  0xba, 0x1e, 0x06, 0xaa, 0xb6, 0x4a, 0x22, 0xf4, 0x4a, 0x1a, 0xea, 0x74,
  0xbf, 0x02, 0xf5, 0x2d, 0x0d, 0xfc, 0x7f, 0xce, 0x93, 0x45, 0x26, 0x17,
  0xf4, 0x0d, 0x81, 0x45, 0xeb, 0xf6, 0x3b, 0xec, 0x3c, 0xd5, 0x45, 0x26,
  0x23, 0xf4, 0xd7, 0xea, 0xbc, 0x0a, 0x9f, 0x97, 0xfe, 0x97, 0x1f, 0x08,
  0x14, 0x21, 0x19, 0xcd, 0xea, 0xed, 0xc7, 0x11, 0x34, 0xe3, 0x15, 0x19,
  0xfb, 0xe7, 0x81, 0x38, 0x1e, 0x00, 0xf9, 0x04, 0x57, 0xbf, 0xde, 0x22,
  0x7f, 0xf4, 0x29, 0x8f, 0x0f, 0xf4, 0xc4, 0xfe, 0x42, 0x01, 0xe1, 0x15,
  0xa5, 0x96, 0xac, 0x7b, 0x3c, 0xf0, 0x1e, 0xc6, 0xef, 0x1c, 0xc0, 0x3f,
  0xf0, 0x9d, 0x2b, 0xff, 0xd7, 0xee, 0x4f, 0xe1, 0x24, 0xed, 0x90, 0xcc,
  0x11, 0x1e, 0xfe, 0x04, 0xe9, 0x81, 0x07, 0x15, 0x1b, 0x5d, 0x08, 0x2c,
  0xf1, 0xde, 0xd6, 0xc3, 0xe2, 0x02, 0x20, 0xd4, 0x40, 0xfc, 0xf5, 0x18,
  0xef, 0xf8, 0x10, 0x1e, 0xe5, 0x81, 0x1f, 0x17, 0x1d, 0xb5, 0xcb, 0x18,
  0x33, 0xbe, 0x30, 0x3e, 0x39, 0xab, 0xf5, 0xfb, 0x42, 0xad, 0xd7, 0x81,
  0x23, 0xd7, 0x98, 0x4f, 0x17, 0xb5, 0xbc, 0x9d, 0x55, 0x41, 0xfa, 0xf3,
  0xe7, 0xfa, 0x07, 0x13, 0x2b, 0x0c, 0xfd, 0x09, 0xdf, 0x1d, 0xf4, 0xe7,
  0xdb, 0xe7, 0x7f, 0xfb, 0x15, 0xf1, 0x4e, 0xdd, 0xa4, 0x03, 0xb2, 0x13,
  0x20, 0xc9, 0xfd, 0x1f, 0xeb, 0xfe, 0x2b, 0xbb, 0xf9, 0x11, 0xde, 0x09,
  0x27, 0x20, 0xa5, 0xf8, 0xb2, 0xda, 0x81, 0x3a, 0xc4, 0x17, 0xb7, 0x76,
  0x1f, 0x81, 0xd9, 0xc6, 0x9e, 0x07, 0x5d, 0x00, 0xf6, 0x15, 0x9f, 0x36,
  0xbb, 0x22, 0x52, 0xf7, 0xe3, 0xdf, 0xdb, 0xe6, 0x21, 0xf9, 0x21, 0x9c,
  0xcf, 0x62, 0x31, 0xe8, 0x7f, 0x49, 0xc7, 0xc1, 0x54, 0x01, 0x0d, 0xe1,
  0x41, 0x0d, 0x93, 0x51, 0x17, 0xfd, 0x3c, 0xc0, 0xc6, 0xaf, 0x0d, 0x41,
  0xd5, 0xd7, 0xb8, 0x33, 0x81, 0xd5, 0x4c, 0x33, 0xf9, 0xef, 0x05, 0x1f,
  0xb1, 0xe1, 0xd3, 0xe2, 0x10, 0x32, 0xfb, 0xc6, 0x79, 0xd8, 0x3d, 0xc6,
  0x37, 0x52, 0xd4, 0xac, 0x0b, 0xe3, 0x95, 0x19, 0xe0, 0x15, 0x7f, 0x14,
  0xba, 0xa8, 0xe8, 0x12, 0x24, 0x20, 0x1a, 0x4e, 0xf1, 0x51, 0x26, 0x12,
  0x02, 0xcf, 0x8b, 0x56, 0xe0, 0xa1, 0x0e, 0x30, 0xfc, 0xc8, 0x64, 0xe4,
  0x30, 0xec, 0x5a, 0xc7, 0xd3, 0xf0, 0x81, 0xda, 0xff, 0x5d, 0x38, 0xc3,
  0x81, 0x4d, 0x0f, 0x0f, 0xf6, 0x40, 0x1b, 0xcd, 0xfc, 0x1b, 0xea, 0x00,
  0x34, 0x3d, 0xfb, 0xdd, 0xed, 0xd0, 0x67, 0x70, 0xce, 0x91, 0x2f, 0xa3,
  0x04, 0x3a, 0x4b, 0x54, 0x58, 0x09, 0xbc, 0x3d, 0xc8, 0xd3, 0x22, 0xd5,
  0x7f, 0x3a, 0x3f, 0xd3, 0x1a, 0x4b, 0xb4, 0xf8, 0xc5, 0xc0, 0x16, 0x7f,
  0x21, 0xca, 0x96, 0x1f, 0x8b, 0xa0, 0x1d, 0x26, 0x44, 0xaf, 0x2b, 0x0c,
  0xfd, 0xde, 0xab, 0x16, 0xd9, 0x8b, 0xa5, 0xb8, 0x9f, 0x86, 0xce, 0x1c,
  0xd8, 0xd1, 0x40, 0x1d, 0xa8, 0x0f, 0x48, 0x20, 0x81, 0x15, 0x95, 0x17,
  0xef, 0x2c, 0x14, 0xac, 0x0a, 0x5c, 0xe8, 0x76, 0x18, 0xb9, 0xf9, 0xd1,
  0x37, 0x2b, 0x44, 0x9b, 0x11, 0x32, 0xc4, 0x07, 0xc4, 0x40, 0xfd, 0x40,
  0xbc, 0xf1, 0x08, 0x09, 0x31, 0x7f, 0x2f, 0x29, 0x57, 0xae, 0xb4, 0x1b,
  0x66, 0xb8, 0x10, 0x24, 0x43, 0xa1, 0xd8, 0x44, 0xcc, 0xda, 0xff, 0x81,
  0xd7, 0xeb, 0x22, 0x09, 0x40, 0x25, 0xdd, 0xad, 0xc6, 0xf7, 0x89, 0x1b,
  0xfa, 0xe3, 0x54, 0xce, 0xe5, 0x6c, 0x25, 0xe1, 0xe5, 0x5c, 0x81, 0x31,
  0xca, 0x46, 0xf9, 0x0e, 0xf4, 0xf2, 0x12, 0x3b, 0xdc, 0xc6, 0x39, 0xf6,
  0xc4, 0x61, 0x0f, 0xd1, 0xbf, 0x4c, 0xef, 0x23, 0xe2, 0x30, 0x09, 0x73,
  0xc1, 0x02, 0xf5, 0xef, 0x1a, 0x7f, 0x58, 0x17, 0x3b, 0x10, 0x05, 0x37,
  0x5a, 0xde, 0xf7, 0x81, 0x14, 0xf3, 0xd4, 0xfb, 0x5f, 0xed, 0x04, 0x18,
  0xe8, 0xdd, 0x0a, 0x57, 0x09, 0x95, 0x16, 0xb8, 0xea, 0x05, 0x43, 0x55,
  0xdc, 0xf9, 0xea, 0x81, 0xb4, 0x12, 0x12, 0x1e, 0x5a, 0xe5, 0x09, 0x5a,
  0xfb, 0x2c, 0x64, 0x2a, 0xfc, 0xad, 0x5c, 0xa6, 0x12, 0xfd, 0xff, 0xff,
  0x04, 0x00, 0x00, 0x00, 0x80, 0x00, 0x00, 0x00, 0xba, 0xfc, 0xff, 0xff,
  0xb1, 0xf7, 0xff, 0xff, 0xa6, 0x0a, 0x00, 0x00, 0xb9, 0xeb, 0xff, 0xff,
  0xf9, 0x09, 0x00, 0x00, 0xdb, 0xfa, 0xff, 0xff, 0xf5, 0x07, 0x00, 0x00,
  0xde, 0xf5, 0xff, 0xff, 0x6f, 0xee, 0xff, 0xff, 0x73, 0x0e, 0x00, 0x00,
  0xb2, 0x01, 0x00, 0x00, 0xbc, 0xfb, 0xff, 0xff, 0xa4, 0x0d, 0x00, 0x00,
  0xbc, 0xfc, 0xff, 0xff, 0x72, 0x12, 0x00, 0x00, 0x8d, 0xf3, 0xff, 0xff,
  0x61, 0x15, 0x00, 0x00, 0xba, 0x0f, 0x00, 0x00, 0xbd, 0xed, 0xff, 0xff,
  0x32, 0x12, 0x00, 0x00, 0x24, 0xf3, 0xff, 0xff, 0x2f, 0x11, 0x00, 0x00,
  0xd3, 0xf0, 0xff, 0xff, 0xd8, 0xf8, 0xff, 0xff, 0x38, 0x1c, 0x00, 0x00,
  0x89, 0x0e, 0x00, 0x00, 0x36, 0xf1, 0xff, 0xff, 0x6e, 0x0c, 0x00, 0x00,
  0x6f, 0xfd, 0xff, 0xff, 0x04, 0xee, 0xff, 0xff, 0x8d, 0xf9, 0xff, 0xff,
  0xa4, 0xf1, 0xff, 0xff, 0x9e, 0xfd, 0xff, 0xff, 0x04, 0x00, 0x00, 0x00,
  0x40, 0x01, 0x00, 0x00, 0xb7, 0x83, 0x99, 0xbf, 0x99, 0xcd, 0x7f, 0x20,
  0x70, 0x49, 0x36, 0x61, 0xaa, 0x65, 0xaa, 0x2b, 0xc1, 0x28, 0xce, 0x5b,
  0x5b, 0x54, 0xd1, 0xa0, 0x79, 0xa3, 0x1f, 0xe5, 0xa7, 0x5b, 0x5c, 0x7c,
  0x21, 0xc8, 0x6a, 0x81, 0x8e, 0x7c, 0x5b, 0xd5, 0x0c, 0x9c, 0xd5, 0x19,
  0x15, 0xbd, 0xeb, 0x4a, 0xf2, 0x7a, 0xad, 0xb9, 0xac, 0xd7, 0xa2, 0x4c,
  0xc6, 0x59, 0x71, 0x61, 0x69, 0x0b, 0x3c, 0x7a, 0x74, 0x0b, 0x71, 0x81,
  0x49, 0x8d, 0xad, 0x39, 0x62, 0x5a, 0x50, 0x45, 0x75, 0x72, 0x67, 0x99,
  0x54, 0x30, 0x74, 0xe5, 0x9d, 0xd7, 0x1d, 0xc9, 0x7b, 0xb9, 0x8d, 0xc7,
  0x12, 0xb1, 0x6e, 0x40, 0x74, 0x4c, 0xf2, 0xa1, 0x44, 0x7f, 0xbf, 0xcd,
  0xcf, 0x1b, 0xc2, 0xc2, 0x3f, 0x3f, 0xd3, 0xd1, 0x4c, 0x34, 0xa4, 0xde,
  0xdb, 0x46, 0x3f, 0xe1, 0x13, 0x35, 0xc4, 0xd3, 0x1a, 0xd8, 0xc9, 0xc6,
  0xcd, 0xb2, 0x73, 0x9c, 0xb2, 0xbb, 0x47, 0x36, 0x95, 0xc7, 0x64, 0x74,
  0xa1, 0x92, 0x7f, 0x15, 0xe8, 0x84, 0x62, 0x99, 0x68, 0x1e, 0x91, 0x5f,
  0xe3, 0xa1, 0x49, 0x76, 0x9a, 0xaf, 0x2b, 0xb6, 0xa1, 0x54, 0x95, 0x59,
  0x43, 0x3b, 0xf2, 0x74, 0x3f, 0x15, 0xe6, 0xe8, 0xf8, 0xd1, 0xae, 0xd8,
  0x52, 0x2d, 0x2a, 0x06, 0xca, 0x8d, 0x4d, 0xd9, 0x81, 0x5c, 0x68, 0xbf,
  0x6d, 0x6e, 0x8d, 0xab, 0x4b, 0x4e, 0xfa, 0x50, 0xc2, 0xd5, 0xb9, 0x3d,
  0x49, 0x81, 0x4d, 0x5b, 0xd6, 0x59, 0xcc, 0x71, 0xae, 0xb7, 0x40, 0xab,
  0x6b, 0x9c, 0x5f, 0xd3, 0x9d, 0xbb, 0x6b, 0xeb, 0xe3, 0x3e, 0x50, 0x60,
  0xb3, 0x9a, 0x0c, 0xb4, 0x5d, 0xc0, 0x78, 0xba, 0xc6, 0xe1, 0xc7, 0x03,
  0x63, 0xcb, 0x6d, 0x3d, 0x29, 0x56, 0x84, 0x7e, 0xc2, 0x4d, 0xb3, 0xf4,
  0x5a, 0x6c, 0xb2, 0x7f, 0xfa, 0xa9, 0xbc, 0xd3, 0x65, 0x4a, 0xb0, 0x39,
  0xdc, 0xb1, 0xb6, 0xb6, 0x17, 0x4e, 0x40, 0x94, 0x9a, 0xc7, 0xac, 0xb1,
  0xea, 0x9b, 0x31, 0x06, 0x20, 0x54, 0x63, 0x7f, 0x28, 0xf2, 0xe2, 0xc7,
  0x92, 0x6f, 0xac, 0x3a, 0xd4, 0x9b, 0x02, 0x7b, 0x4f, 0x9f, 0x16, 0x91,
  0xaa, 0x49, 0x93, 0xa9, 0xcb, 0xc7, 0x26, 0x7f, 0xe7, 0xb0, 0x5f, 0x8f,
  0xe0, 0x7d, 0x37, 0x55, 0xb0, 0x81, 0x9a, 0x26, 0x89, 0xa1, 0xc5, 0xd3,
  0xea, 0xfe, 0xff, 0xff, 0x04, 0x00, 0x00, 0x00, 0x28, 0x00, 0x00, 0x00,
  0xc1, 0x01, 0x00, 0x00, 0x4c, 0x00, 0x00, 0x00, 0x27, 0x0d, 0x00, 0x00,
  0xf2, 0xf7, 0xff, 0xff, 0x7d, 0xf7, 0xff, 0xff, 0x41, 0x05, 0x00, 0x00,
  0x0b, 0xf7, 0xff, 0xff, 0xf6, 0xfb, 0xff, 0xff, 0xdc, 0x02, 0x00, 0x00,
  0x4e, 0x0b, 0x00, 0x00, 0x1e, 0xff, 0xff, 0xff, 0x04, 0x00, 0x00, 0x00,
  0x08, 0x00, 0x00, 0x00, 0x01, 0x00, 0x00, 0x00, 0x02, 0x00, 0x00, 0x00,
  0xb4, 0xdf, 0xff, 0xff, 0xb8, 0xdf, 0xff, 0xff, 0x0f, 0x00, 0x00, 0x00,
  0x4d, 0x4c, 0x49, 0x52, 0x20, 0x43, 0x6f, 0x6e, 0x76, 0x65, 0x72, 0x74,
  0x65, 0x64, 0x2e, 0x00, 0x01, 0x00, 0x00, 0x00, 0x14, 0x00, 0x00, 0x00,
  0x00, 0x00, 0x0e, 0x00, 0x18, 0x00, 0x14, 0x00, 0x10, 0x00, 0x0c, 0x00,
  0x08, 0x00, 0x04, 0x00, 0x0e, 0x00, 0x00, 0x00, 0x14, 0x00, 0x00, 0x00,
  0x1c, 0x00, 0x00, 0x00, 0xf4, 0x02, 0x00, 0x00, 0xf8, 0x02, 0x00, 0x00,
  0xfc, 0x02, 0x00, 0x00, 0x04, 0x00, 0x00, 0x00, 0x6d, 0x61, 0x69, 0x6e,
  0x00, 0x00, 0x00, 0x00, 0x0b, 0x00, 0x00, 0x00, 0xbc, 0x02, 0x00, 0x00,
  0x60, 0x02, 0x00, 0x00, 0xf8, 0x01, 0x00, 0x00, 0xb8, 0x01, 0x00, 0x00,
  0x64, 0x01, 0x00, 0x00, 0x1c, 0x01, 0x00, 0x00, 0xdc, 0x00, 0x00, 0x00,
  0xa8, 0x00, 0x00, 0x00, 0x70, 0x00, 0x00, 0x00, 0x34, 0x00, 0x00, 0x00,
  0x10, 0x00, 0x00, 0x00, 0x00, 0x00, 0x0a, 0x00, 0x10, 0x00, 0x0c, 0x00,
  0x08, 0x00, 0x04, 0x00, 0x0a, 0x00, 0x00, 0x00, 0x0c, 0x00, 0x00, 0x00,
  0x10, 0x00, 0x00, 0x00, 0x07, 0x00, 0x00, 0x00, 0x01, 0x00, 0x00, 0x00,
  0x18, 0x00, 0x00, 0x00, 0x01, 0x00, 0x00, 0x00, 0x17, 0x00, 0x00, 0x00,
  0x02, 0xfe, 0xff, 0xff, 0x1c, 0x00, 0x00, 0x00, 0x00, 0x00, 0x00, 0x09,
  0x1c, 0x00, 0x00, 0x00, 0x20, 0x00, 0x00, 0x00, 0x06, 0x00, 0x00, 0x00,
  0x00, 0x00, 0x06, 0x00, 0x08, 0x00, 0x04, 0x00, 0x06, 0x00, 0x00, 0x00,
  0x00, 0x00, 0x80, 0x3f, 0x01, 0x00, 0x00, 0x00, 0x17, 0x00, 0x00, 0x00,
  0x01, 0x00, 0x00, 0x00, 0x16, 0x00, 0x00, 0x00, 0x3a, 0xfe, 0xff, 0xff,
  0x14, 0x00, 0x00, 0x00, 0x00, 0x00, 0x00, 0x08, 0x10, 0x00, 0x00, 0x00,
  0x14, 0x00, 0x00, 0x00, 0x05, 0x00, 0x00, 0x00, 0xb8, 0xe0, 0xff, 0xff,
  0x01, 0x00, 0x00, 0x00, 0x16, 0x00, 0x00, 0x00, 0x03, 0x00, 0x00, 0x00,
  0x15, 0x00, 0x00, 0x00, 0x03, 0x00, 0x00, 0x00, 0x02, 0x00, 0x00, 0x00,
  0x6e, 0xfe, 0xff, 0xff, 0x14, 0x00, 0x00, 0x00, 0x00, 0x00, 0x00, 0x1b,
  0x10, 0x00, 0x00, 0x00, 0x14, 0x00, 0x00, 0x00, 0x04, 0x00, 0x00, 0x00,
  0xec, 0xe0, 0xff, 0xff, 0x01, 0x00, 0x00, 0x00, 0x15, 0x00, 0x00, 0x00,
  0x02, 0x00, 0x00, 0x00, 0x14, 0x00, 0x00, 0x00, 0x01, 0x00, 0x00, 0x00,
  0x9e, 0xfe, 0xff, 0xff, 0x14, 0x00, 0x00, 0x00, 0x00, 0x00, 0x00, 0x01,
  0x18, 0x00, 0x00, 0x00, 0x1c, 0x00, 0x00, 0x00, 0x01, 0x00, 0x00, 0x00,
  0x5a, 0xfe, 0xff, 0xff, 0x01, 0x00, 0x00, 0x00, 0x01, 0x00, 0x00, 0x00,
  0x01, 0x00, 0x00, 0x00, 0x14, 0x00, 0x00, 0x00, 0x03, 0x00, 0x00, 0x00,
  0x13, 0x00, 0x00, 0x00, 0x05, 0x00, 0x00, 0x00, 0x04, 0x00, 0x00, 0x00,
  0xda, 0xfe, 0xff, 0xff, 0x14, 0x00, 0x00, 0x00, 0x00, 0x00, 0x00, 0x02,
  0x20, 0x00, 0x00, 0x00, 0x24, 0x00, 0x00, 0x00, 0x02, 0x00, 0x00, 0x00,
  0x2e, 0xff, 0xff, 0xff, 0x00, 0x00, 0x00, 0x01, 0x01, 0x00, 0x00, 0x00,
  0x01, 0x00, 0x00, 0x00, 0x01, 0x00, 0x00, 0x00, 0x01, 0x00, 0x00, 0x00,
  0x13, 0x00, 0x00, 0x00, 0x03, 0x00, 0x00, 0x00, 0x12, 0x00, 0x00, 0x00,
  0x07, 0x00, 0x00, 0x00, 0x06, 0x00, 0x00, 0x00, 0x1e, 0xff, 0xff, 0xff,
  0x24, 0x00, 0x00, 0x00, 0x00, 0x00, 0x00, 0x05, 0x34, 0x00, 0x00, 0x00,
  0x38, 0x00, 0x00, 0x00, 0x03, 0x00, 0x00, 0x00, 0x00, 0x00, 0x0e, 0x00,
  0x18, 0x00, 0x17, 0x00, 0x10, 0x00, 0x0c, 0x00, 0x08, 0x00, 0x04, 0x00,
  0x0e, 0x00, 0x00, 0x00, 0x02, 0x00, 0x00, 0x00, 0x02, 0x00, 0x00, 0x00,
  0x02, 0x00, 0x00, 0x00, 0x02, 0x00, 0x00, 0x00, 0x00, 0x00, 0x00, 0x01,
  0x01, 0x00, 0x00, 0x00, 0x12, 0x00, 0x00, 0x00, 0x01, 0x00, 0x00, 0x00,
  0x11, 0x00, 0x00, 0x00, 0x6e, 0xff, 0xff, 0xff, 0x14, 0x00, 0x00, 0x00,
  0x00, 0x00, 0x00, 0x01, 0x18, 0x00, 0x00, 0x00, 0x1c, 0x00, 0x00, 0x00,
  0x01, 0x00, 0x00, 0x00, 0x2a, 0xff, 0xff, 0xff, 0x01, 0x00, 0x00, 0x00,
  0x01, 0x00, 0x00, 0x00, 0x01, 0x00, 0x00, 0x00, 0x11, 0x00, 0x00, 0x00,
  0x03, 0x00, 0x00, 0x00, 0x10, 0x00, 0x00, 0x00, 0x09, 0x00, 0x00, 0x00,
  0x08, 0x00, 0x00, 0x00, 0xaa, 0xff, 0xff, 0xff, 0x24, 0x00, 0x00, 0x00,
  0x00, 0x00, 0x00, 0x02, 0x30, 0x00, 0x00, 0x00, 0x34, 0x00, 0x00, 0x00,
  0x02, 0x00, 0x00, 0x00, 0x00, 0x00, 0x0e, 0x00, 0x14, 0x00, 0x00, 0x00,
  0x10, 0x00, 0x0c, 0x00, 0x08, 0x00, 0x07, 0x00, 0x0e, 0x00, 0x00, 0x00,
  0x00, 0x00, 0x00, 0x01, 0x01, 0x00, 0x00, 0x00, 0x01, 0x00, 0x00, 0x00,
  0x01, 0x00, 0x00, 0x00, 0x01, 0x00, 0x00, 0x00, 0x10, 0x00, 0x00, 0x00,
  0x03, 0x00, 0x00, 0x00, 0x0f, 0x00, 0x00, 0x00, 0x0b, 0x00, 0x00, 0x00,
  0x0a, 0x00, 0x00, 0x00, 0x00, 0x00, 0x0e, 0x00, 0x18, 0x00, 0x14, 0x00,
  0x10, 0x00, 0x0c, 0x00, 0x0b, 0x00, 0x04, 0x00, 0x0e, 0x00, 0x00, 0x00,
  0x20, 0x00, 0x00, 0x00, 0x00, 0x00, 0x00, 0x01, 0x28, 0x00, 0x00, 0x00,
  0x2c, 0x00, 0x00, 0x00, 0x01, 0x00, 0x00, 0x00, 0x0c, 0x00, 0x10, 0x00,
  0x00, 0x00, 0x0c, 0x00, 0x08, 0x00, 0x07, 0x00, 0x0c, 0x00, 0x00, 0x00,
  0x00, 0x00, 0x00, 0x01, 0x02, 0x00, 0x00, 0x00, 0x02, 0x00, 0x00, 0x00,
  0x01, 0x00, 0x00, 0x00, 0x0f, 0x00, 0x00, 0x00, 0x03, 0x00, 0x00, 0x00,
  0x0e, 0x00, 0x00, 0x00, 0x0d, 0x00, 0x00, 0x00, 0x0c, 0x00, 0x00, 0x00,
  0x00, 0x00, 0x0a, 0x00, 0x0c, 0x00, 0x00, 0x00, 0x08, 0x00, 0x04, 0x00,
  0x0a, 0x00, 0x00, 0x00, 0x08, 0x00, 0x00, 0x00, 0x0c, 0x00, 0x00, 0x00,
  0x01, 0x00, 0x00, 0x00, 0x0e, 0x00, 0x00, 0x00, 0x01, 0x00, 0x00, 0x00,
  0x00, 0x00, 0x00, 0x00, 0x01, 0x00, 0x00, 0x00, 0x18, 0x00, 0x00, 0x00,
  0x01, 0x00, 0x00, 0x00, 0x00, 0x00, 0x00, 0x00, 0x19, 0x00, 0x00, 0x00,
  0xd4, 0x1c, 0x00, 0x00, 0x7c, 0x1c, 0x00, 0x00, 0x88, 0x1b, 0x00, 0x00,
  0xb8, 0x1a, 0x00, 0x00, 0xe4, 0x18, 0x00, 0x00, 0x00, 0x17, 0x00, 0x00,
  0x8c, 0x15, 0x00, 0x00, 0xf0, 0x13, 0x00, 0x00, 0x7c, 0x12, 0x00, 0x00,
  0xf8, 0x10, 0x00, 0x00, 0xe4, 0x0f, 0x00, 0x00, 0xbc, 0x0e, 0x00, 0x00,
  0xa4, 0x0d, 0x00, 0x00, 0x80, 0x0c, 0x00, 0x00, 0xfc, 0x0b, 0x00, 0x00,
  0x10, 0x0a, 0x00, 0x00, 0x24, 0x08, 0x00, 0x00, 0x68, 0x06, 0x00, 0x00,
  0xcc, 0x05, 0x00, 0x00, 0xd8, 0x03, 0x00, 0x00, 0x1c, 0x02, 0x00, 0x00,
  0x88, 0x01, 0x00, 0x00, 0xe4, 0x00, 0x00, 0x00, 0x60, 0x00, 0x00, 0x00,
  0x04, 0x00, 0x00, 0x00, 0xa6, 0xe3, 0xff, 0xff, 0x00, 0x00, 0x00, 0x01,
  0x14, 0x00, 0x00, 0x00, 0x1c, 0x00, 0x00, 0x00, 0x1c, 0x00, 0x00, 0x00,
  0x19, 0x00, 0x00, 0x00, 0x34, 0x00, 0x00, 0x00, 0x02, 0x00, 0x00, 0x00,
  0xff, 0xff, 0xff, 0xff, 0x0a, 0x00, 0x00, 0x00, 0x88, 0xe3, 0xff, 0xff,
  0x1b, 0x00, 0x00, 0x00, 0x53, 0x74, 0x61, 0x74, 0x65, 0x66, 0x75, 0x6c,
  0x50, 0x61, 0x72, 0x74, 0x69, 0x74, 0x69, 0x6f, 0x6e, 0x65, 0x64, 0x43,
  0x61, 0x6c, 0x6c, 0x5f, 0x31, 0x3a, 0x30, 0x00, 0x02, 0x00, 0x00, 0x00,
  0x01, 0x00, 0x00, 0x00, 0x0a, 0x00, 0x00, 0x00, 0x9e, 0xf4, 0xff, 0xff,
  0x00, 0x00, 0x00, 0x01, 0x18, 0x00, 0x00, 0x00, 0x20, 0x00, 0x00, 0x00,
  0x40, 0x00, 0x00, 0x00, 0x18, 0x00, 0x00, 0x00, 0x00, 0x00, 0x00, 0x09,
  0x58, 0x00, 0x00, 0x00, 0x02, 0x00, 0x00, 0x00, 0xff, 0xff, 0xff, 0xff,
  0x0a, 0x00, 0x00, 0x00, 0x3c, 0xe5, 0xff, 0xff, 0x08, 0x00, 0x00, 0x00,
  0x14, 0x00, 0x00, 0x00, 0x01, 0x00, 0x00, 0x00, 0x80, 0xff, 0xff, 0xff,
  0xff, 0xff, 0xff, 0xff, 0x00, 0x00, 0x00, 0x00, 0x01, 0x00, 0x00, 0x00,
  0x00, 0x00, 0x80, 0x3b, 0x1c, 0x00, 0x00, 0x00, 0x53, 0x74, 0x61, 0x74,
  0x65, 0x66, 0x75, 0x6c, 0x50, 0x61, 0x72, 0x74, 0x69, 0x74, 0x69, 0x6f,
  0x6e, 0x65, 0x64, 0x43, 0x61, 0x6c, 0x6c, 0x5f, 0x31, 0x3a, 0x30, 0x31,
  0x00, 0x00, 0x00, 0x00, 0x02, 0x00, 0x00, 0x00, 0x01, 0x00, 0x00, 0x00,
  0x0a, 0x00, 0x00, 0x00, 0x1e, 0xf5, 0xff, 0xff, 0x00, 0x00, 0x00, 0x01,
  0x18, 0x00, 0x00, 0x00, 0x20, 0x00, 0x00, 0x00, 0x3c, 0x00, 0x00, 0x00,
  0x17, 0x00, 0x00, 0x00, 0x00, 0x00, 0x00, 0x09, 0x78, 0x00, 0x00, 0x00,
  0x02, 0x00, 0x00, 0x00, 0xff, 0xff, 0xff, 0xff, 0x0a, 0x00, 0x00, 0x00,
  0xbc, 0xe5, 0xff, 0xff, 0x08, 0x00, 0x00, 0x00, 0x10, 0x00, 0x00, 0x00,
  0x01, 0x00, 0x00, 0x00, 0xf9, 0xff, 0xff, 0xff, 0xff, 0xff, 0xff, 0xff,
  0x01, 0x00, 0x00, 0x00, 0x2a, 0xb0, 0x18, 0x3e, 0x40, 0x00, 0x00, 0x00,
  0x65, 0x66, 0x66, 0x69, 0x63, 0x69, 0x65, 0x6e, 0x74, 0x6e, 0x65, 0x74,
  0x5f, 0x31, 0x2f, 0x64, 0x65, 0x6e, 0x73, 0x65, 0x5f, 0x31, 0x5f, 0x31,
  0x2f, 0x4d, 0x61, 0x74, 0x4d, 0x75, 0x6c, 0x3b, 0x65, 0x66, 0x66, 0x69,
  0x63, 0x69, 0x65, 0x6e, 0x74, 0x6e, 0x65, 0x74, 0x5f, 0x31, 0x2f, 0x64,
  0x65, 0x6e, 0x73, 0x65, 0x5f, 0x31, 0x5f, 0x31, 0x2f, 0x42, 0x69, 0x61,
  0x73, 0x41, 0x64, 0x64, 0x00, 0x00, 0x00, 0x00, 0x02, 0x00, 0x00, 0x00,
  0x01, 0x00, 0x00, 0x00, 0x0a, 0x00, 0x00, 0x00, 0xbe, 0xf5, 0xff, 0xff,
  0x00, 0x00, 0x00, 0x01, 0x18, 0x00, 0x00, 0x00, 0x20, 0x00, 0x00, 0x00,
  0x3c, 0x00, 0x00, 0x00, 0x16, 0x00, 0x00, 0x00, 0x00, 0x00, 0x00, 0x09,
  0x68, 0x00, 0x00, 0x00, 0x02, 0x00, 0x00, 0x00, 0xff, 0xff, 0xff, 0xff,
  0x20, 0x00, 0x00, 0x00, 0x5c, 0xe6, 0xff, 0xff, 0x08, 0x00, 0x00, 0x00,
  0x10, 0x00, 0x00, 0x00, 0x01, 0x00, 0x00, 0x00, 0x0a, 0x00, 0x00, 0x00,
  0x00, 0x00, 0x00, 0x00, 0x01, 0x00, 0x00, 0x00, 0x40, 0xce, 0x9e, 0x3c,
  0x30, 0x00, 0x00, 0x00, 0x65, 0x66, 0x66, 0x69, 0x63, 0x69, 0x65, 0x6e,
  0x74, 0x6e, 0x65, 0x74, 0x5f, 0x31, 0x2f, 0x67, 0x6c, 0x6f, 0x62, 0x61,
  0x6c, 0x5f, 0x61, 0x76, 0x65, 0x72, 0x61, 0x67, 0x65, 0x5f, 0x70, 0x6f,
  0x6f, 0x6c, 0x69, 0x6e, 0x67, 0x32, 0x64, 0x5f, 0x31, 0x5f, 0x31, 0x2f,
  0x4d, 0x65, 0x61, 0x6e, 0x00, 0x00, 0x00, 0x00, 0x02, 0x00, 0x00, 0x00,
  0x01, 0x00, 0x00, 0x00, 0x20, 0x00, 0x00, 0x00, 0x4e, 0xf6, 0xff, 0xff,
  0x00, 0x00, 0x00, 0x01, 0x18, 0x00, 0x00, 0x00, 0x28, 0x00, 0x00, 0x00,
  0x48, 0x00, 0x00, 0x00, 0x15, 0x00, 0x00, 0x00, 0x00, 0x00, 0x00, 0x09,
  0x88, 0x01, 0x00, 0x00, 0x04, 0x00, 0x00, 0x00, 0xff, 0xff, 0xff, 0xff,
  0x08, 0x00, 0x00, 0x00, 0x08, 0x00, 0x00, 0x00, 0x20, 0x00, 0x00, 0x00,
  0xf4, 0xe6, 0xff, 0xff, 0x08, 0x00, 0x00, 0x00, 0x14, 0x00, 0x00, 0x00,
  0x01, 0x00, 0x00, 0x00, 0xee, 0xff, 0xff, 0xff, 0xff, 0xff, 0xff, 0xff,
  0x00, 0x00, 0x00, 0x00, 0x01, 0x00, 0x00, 0x00, 0x66, 0xbb, 0x04, 0x3e,
  0x44, 0x01, 0x00, 0x00, 0x65, 0x66, 0x66, 0x69, 0x63, 0x69, 0x65, 0x6e,
  0x74, 0x6e, 0x65, 0x74, 0x5f, 0x31, 0x2f, 0x62, 0x61, 0x74, 0x63, 0x68,
  0x5f, 0x6e, 0x6f, 0x72, 0x6d, 0x61, 0x6c, 0x69, 0x7a, 0x61, 0x74, 0x69,
  0x6f, 0x6e, 0x5f, 0x34, 0x5f, 0x31, 0x2f, 0x62, 0x61, 0x74, 0x63, 0x68,
  0x6e, 0x6f, 0x72, 0x6d, 0x2f, 0x61, 0x64, 0x64, 0x5f, 0x31, 0x3b, 0x65,
  0x66, 0x66, 0x69, 0x63, 0x69, 0x65, 0x6e, 0x74, 0x6e, 0x65, 0x74, 0x5f,
  0x31, 0x2f, 0x62, 0x61, 0x74, 0x63, 0x68, 0x5f, 0x6e, 0x6f, 0x72, 0x6d,
  0x61, 0x6c, 0x69, 0x7a, 0x61, 0x74, 0x69, 0x6f, 0x6e, 0x5f, 0x34, 0x5f,
  0x31, 0x2f, 0x62, 0x61, 0x74, 0x63, 0x68, 0x6e, 0x6f, 0x72, 0x6d, 0x2f,
  0x6d, 0x75, 0x6c, 0x5f, 0x31, 0x3b, 0x65, 0x66, 0x66, 0x69, 0x63, 0x69,
  0x65, 0x6e, 0x74, 0x6e, 0x65, 0x74, 0x5f, 0x31, 0x2f, 0x63, 0x6f, 0x6e,
  0x76, 0x32, 0x64, 0x5f, 0x31, 0x35, 0x5f, 0x31, 0x2f, 0x53, 0x71, 0x75,
  0x65, 0x65, 0x7a, 0x65, 0x3b, 0x65, 0x66, 0x66, 0x69, 0x63, 0x69, 0x65,
  0x6e, 0x74, 0x6e, 0x65, 0x74, 0x5f, 0x31, 0x2f, 0x63, 0x6f, 0x6e, 0x76,
  0x32, 0x64, 0x5f, 0x31, 0x35, 0x5f, 0x31, 0x2f, 0x42, 0x69, 0x61, 0x73,
  0x41, 0x64, 0x64, 0x3b, 0x65, 0x66, 0x66, 0x69, 0x63, 0x69, 0x65, 0x6e,
  0x74, 0x6e, 0x65, 0x74, 0x5f, 0x31, 0x2f, 0x62, 0x61, 0x74, 0x63, 0x68,
  0x5f, 0x6e, 0x6f, 0x72, 0x6d, 0x61, 0x6c, 0x69, 0x7a, 0x61, 0x74, 0x69,
  0x6f, 0x6e, 0x5f, 0x34, 0x5f, 0x31, 0x2f, 0x62, 0x61, 0x74, 0x63, 0x68,
  0x6e, 0x6f, 0x72, 0x6d, 0x2f, 0x6d, 0x75, 0x6c, 0x3b, 0x65, 0x66, 0x66,
  0x69, 0x63, 0x69, 0x65, 0x6e, 0x74, 0x6e, 0x65, 0x74, 0x5f, 0x31, 0x2f,
  0x62, 0x61, 0x74, 0x63, 0x68, 0x5f, 0x6e, 0x6f, 0x72, 0x6d, 0x61, 0x6c,
  0x69, 0x7a, 0x61, 0x74, 0x69, 0x6f, 0x6e, 0x5f, 0x34, 0x5f, 0x31, 0x2f,
  0x62, 0x61, 0x74, 0x63, 0x68, 0x6e, 0x6f, 0x72, 0x6d, 0x2f, 0x73, 0x75,
  0x62, 0x3b, 0x65, 0x66, 0x66, 0x69, 0x63, 0x69, 0x65, 0x6e, 0x74, 0x6e,
  0x65, 0x74, 0x5f, 0x31, 0x2f, 0x63, 0x6f, 0x6e, 0x76, 0x32, 0x64, 0x5f,
  0x31, 0x35, 0x5f, 0x31, 0x2f, 0x63, 0x6f, 0x6e, 0x76, 0x6f, 0x6c, 0x75,
  0x74, 0x69, 0x6f, 0x6e, 0x00, 0x00, 0x00, 0x00, 0x04, 0x00, 0x00, 0x00,
  0x01, 0x00, 0x00, 0x00, 0x08, 0x00, 0x00, 0x00, 0x08, 0x00, 0x00, 0x00,
  0x20, 0x00, 0x00, 0x00, 0x06, 0xf8, 0xff, 0xff, 0x00, 0x00, 0x00, 0x01,
  0x18, 0x00, 0x00, 0x00, 0x28, 0x00, 0x00, 0x00, 0x44, 0x00, 0x00, 0x00,
  0x14, 0x00, 0x00, 0x00, 0x00, 0x00, 0x00, 0x09, 0xc0, 0x01, 0x00, 0x00,
  0x04, 0x00, 0x00, 0x00, 0xff, 0xff, 0xff, 0xff, 0x08, 0x00, 0x00, 0x00,
  0x08, 0x00, 0x00, 0x00, 0x18, 0x00, 0x00, 0x00, 0xac, 0xe8, 0xff, 0xff,
  0x08, 0x00, 0x00, 0x00, 0x10, 0x00, 0x00, 0x00, 0x01, 0x00, 0x00, 0x00,
  0x80, 0xff, 0xff, 0xff, 0xff, 0xff, 0xff, 0xff, 0x01, 0x00, 0x00, 0x00,
  0x59, 0xce, 0x98, 0x3c, 0x80, 0x01, 0x00, 0x00, 0x65, 0x66, 0x66, 0x69,
  0x63, 0x69, 0x65, 0x6e, 0x74, 0x6e, 0x65, 0x74, 0x5f, 0x31, 0x2f, 0x61,
  0x63, 0x74, 0x69, 0x76, 0x61, 0x74, 0x69, 0x6f, 0x6e, 0x5f, 0x32, 0x5f,
  0x31, 0x2f, 0x52, 0x65, 0x6c, 0x75, 0x3b, 0x65, 0x66, 0x66, 0x69, 0x63,
  0x69, 0x65, 0x6e, 0x74, 0x6e, 0x65, 0x74, 0x5f, 0x31, 0x2f, 0x62, 0x61,
  0x74, 0x63, 0x68, 0x5f, 0x6e, 0x6f, 0x72, 0x6d, 0x61, 0x6c, 0x69, 0x7a,
  0x61, 0x74, 0x69, 0x6f, 0x6e, 0x5f, 0x33, 0x5f, 0x31, 0x2f, 0x62, 0x61,
  0x74, 0x63, 0x68, 0x6e, 0x6f, 0x72, 0x6d, 0x2f, 0x61, 0x64, 0x64, 0x5f,
  0x31, 0x3b, 0x65, 0x66, 0x66, 0x69, 0x63, 0x69, 0x65, 0x6e, 0x74, 0x6e,
  0x65, 0x74, 0x5f, 0x31, 0x2f, 0x62, 0x61, 0x74, 0x63, 0x68, 0x5f, 0x6e,
  0x6f, 0x72, 0x6d, 0x61, 0x6c, 0x69, 0x7a, 0x61, 0x74, 0x69, 0x6f, 0x6e,
  0x5f, 0x33, 0x5f, 0x31, 0x2f, 0x62, 0x61, 0x74, 0x63, 0x68, 0x6e, 0x6f,
  0x72, 0x6d, 0x2f, 0x6d, 0x75, 0x6c, 0x5f, 0x31, 0x3b, 0x65, 0x66, 0x66,
  0x69, 0x63, 0x69, 0x65, 0x6e, 0x74, 0x6e, 0x65, 0x74, 0x5f, 0x31, 0x2f,
  0x64, 0x65, 0x70, 0x74, 0x68, 0x77, 0x69, 0x73, 0x65, 0x5f, 0x63, 0x6f,
  0x6e, 0x76, 0x32, 0x64, 0x5f, 0x31, 0x5f, 0x32, 0x2f, 0x42, 0x69, 0x61,
  0x73, 0x41, 0x64, 0x64, 0x3b, 0x65, 0x66, 0x66, 0x69, 0x63, 0x69, 0x65,
  0x6e, 0x74, 0x6e, 0x65, 0x74, 0x5f, 0x31, 0x2f, 0x64, 0x65, 0x70, 0x74,
  0x68, 0x77, 0x69, 0x73, 0x65, 0x5f, 0x63, 0x6f, 0x6e, 0x76, 0x32, 0x64,
  0x5f, 0x31, 0x5f, 0x32, 0x2f, 0x64, 0x65, 0x70, 0x74, 0x68, 0x77, 0x69,
  0x73, 0x65, 0x3b, 0x65, 0x66, 0x66, 0x69, 0x63, 0x69, 0x65, 0x6e, 0x74,
  0x6e, 0x65, 0x74, 0x5f, 0x31, 0x2f, 0x64, 0x65, 0x70, 0x74, 0x68, 0x77,
  0x69, 0x73, 0x65, 0x5f, 0x63, 0x6f, 0x6e, 0x76, 0x32, 0x64, 0x5f, 0x31,
  0x5f, 0x32, 0x2f, 0x53, 0x71, 0x75, 0x65, 0x65, 0x7a, 0x65, 0x3b, 0x65,
  0x66, 0x66, 0x69, 0x63, 0x69, 0x65, 0x6e, 0x74, 0x6e, 0x65, 0x74, 0x5f,
  0x31, 0x2f, 0x62, 0x61, 0x74, 0x63, 0x68, 0x5f, 0x6e, 0x6f, 0x72, 0x6d,
  0x61, 0x6c, 0x69, 0x7a, 0x61, 0x74, 0x69, 0x6f, 0x6e, 0x5f, 0x33, 0x5f,
  0x31, 0x2f, 0x62, 0x61, 0x74, 0x63, 0x68, 0x6e, 0x6f, 0x72, 0x6d, 0x2f,
  0x6d, 0x75, 0x6c, 0x3b, 0x65, 0x66, 0x66, 0x69, 0x63, 0x69, 0x65, 0x6e,
  0x74, 0x6e, 0x65, 0x74, 0x5f, 0x31, 0x2f, 0x62, 0x61, 0x74, 0x63, 0x68,
  0x5f, 0x6e, 0x6f, 0x72, 0x6d, 0x61, 0x6c, 0x69, 0x7a, 0x61, 0x74, 0x69,
  0x6f, 0x6e, 0x5f, 0x33, 0x5f, 0x31, 0x2f, 0x62, 0x61, 0x74, 0x63, 0x68,
  0x6e, 0x6f, 0x72, 0x6d, 0x2f, 0x73, 0x75, 0x62, 0x00, 0x00, 0x00, 0x00,
  0x04, 0x00, 0x00, 0x00, 0x01, 0x00, 0x00, 0x00, 0x08, 0x00, 0x00, 0x00,
  0x08, 0x00, 0x00, 0x00, 0x18, 0x00, 0x00, 0x00, 0xf6, 0xf9, 0xff, 0xff,
  0x00, 0x00, 0x00, 0x01, 0x18, 0x00, 0x00, 0x00, 0x28, 0x00, 0x00, 0x00,
  0x44, 0x00, 0x00, 0x00, 0x13, 0x00, 0x00, 0x00, 0x00, 0x00, 0x00, 0x09,
  0x68, 0x00, 0x00, 0x00, 0x04, 0x00, 0x00, 0x00, 0xff, 0xff, 0xff, 0xff,
  0x08, 0x00, 0x00, 0x00, 0x08, 0x00, 0x00, 0x00, 0x18, 0x00, 0x00, 0x00,
  0x9c, 0xea, 0xff, 0xff, 0x08, 0x00, 0x00, 0x00, 0x10, 0x00, 0x00, 0x00,
  0x01, 0x00, 0x00, 0x00, 0xec, 0xff, 0xff, 0xff, 0xff, 0xff, 0xff, 0xff,
  0x01, 0x00, 0x00, 0x00, 0x14, 0x35, 0x25, 0x3d, 0x2a, 0x00, 0x00, 0x00,
  0x65, 0x66, 0x66, 0x69, 0x63, 0x69, 0x65, 0x6e, 0x74, 0x6e, 0x65, 0x74,
  0x5f, 0x31, 0x2f, 0x6d, 0x61, 0x78, 0x5f, 0x70, 0x6f, 0x6f, 0x6c, 0x69,
  0x6e, 0x67, 0x32, 0x64, 0x5f, 0x32, 0x5f, 0x31, 0x2f, 0x4d, 0x61, 0x78,
  0x50, 0x6f, 0x6f, 0x6c, 0x32, 0x64, 0x00, 0x00, 0x04, 0x00, 0x00, 0x00,
  0x01, 0x00, 0x00, 0x00, 0x08, 0x00, 0x00, 0x00, 0x08, 0x00, 0x00, 0x00,
  0x18, 0x00, 0x00, 0x00, 0x8e, 0xfa, 0xff, 0xff, 0x00, 0x00, 0x00, 0x01,
  0x18, 0x00, 0x00, 0x00, 0x28, 0x00, 0x00, 0x00, 0x48, 0x00, 0x00, 0x00,
  0x12, 0x00, 0x00, 0x00, 0x00, 0x00, 0x00, 0x09, 0x88, 0x01, 0x00, 0x00,
  0x04, 0x00, 0x00, 0x00, 0xff, 0xff, 0xff, 0xff, 0x10, 0x00, 0x00, 0x00,
  0x10, 0x00, 0x00, 0x00, 0x18, 0x00, 0x00, 0x00, 0x34, 0xeb, 0xff, 0xff,
  0x08, 0x00, 0x00, 0x00, 0x14, 0x00, 0x00, 0x00, 0x01, 0x00, 0x00, 0x00,
  0xec, 0xff, 0xff, 0xff, 0xff, 0xff, 0xff, 0xff, 0x00, 0x00, 0x00, 0x00,
  0x01, 0x00, 0x00, 0x00, 0x14, 0x35, 0x25, 0x3d, 0x44, 0x01, 0x00, 0x00,
  0x65, 0x66, 0x66, 0x69, 0x63, 0x69, 0x65, 0x6e, 0x74, 0x6e, 0x65, 0x74,
  0x5f, 0x31, 0x2f, 0x62, 0x61, 0x74, 0x63, 0x68, 0x5f, 0x6e, 0x6f, 0x72,
  0x6d, 0x61, 0x6c, 0x69, 0x7a, 0x61, 0x74, 0x69, 0x6f, 0x6e, 0x5f, 0x32,
  0x5f, 0x31, 0x2f, 0x62, 0x61, 0x74, 0x63, 0x68, 0x6e, 0x6f, 0x72, 0x6d,
  0x2f, 0x61, 0x64, 0x64, 0x5f, 0x31, 0x3b, 0x65, 0x66, 0x66, 0x69, 0x63,
  0x69, 0x65, 0x6e, 0x74, 0x6e, 0x65, 0x74, 0x5f, 0x31, 0x2f, 0x62, 0x61,
  0x74, 0x63, 0x68, 0x5f, 0x6e, 0x6f, 0x72, 0x6d, 0x61, 0x6c, 0x69, 0x7a,
  0x61, 0x74, 0x69, 0x6f, 0x6e, 0x5f, 0x32, 0x5f, 0x31, 0x2f, 0x62, 0x61,
  0x74, 0x63, 0x68, 0x6e, 0x6f, 0x72, 0x6d, 0x2f, 0x6d, 0x75, 0x6c, 0x5f,
  0x31, 0x3b, 0x65, 0x66, 0x66, 0x69, 0x63, 0x69, 0x65, 0x6e, 0x74, 0x6e,
  0x65, 0x74, 0x5f, 0x31, 0x2f, 0x63, 0x6f, 0x6e, 0x76, 0x32, 0x64, 0x5f,
  0x31, 0x34, 0x5f, 0x31, 0x2f, 0x53, 0x71, 0x75, 0x65, 0x65, 0x7a, 0x65,
  0x3b, 0x65, 0x66, 0x66, 0x69, 0x63, 0x69, 0x65, 0x6e, 0x74, 0x6e, 0x65,
  0x74, 0x5f, 0x31, 0x2f, 0x63, 0x6f, 0x6e, 0x76, 0x32, 0x64, 0x5f, 0x31,
  0x34, 0x5f, 0x31, 0x2f, 0x42, 0x69, 0x61, 0x73, 0x41, 0x64, 0x64, 0x3b,
  0x65, 0x66, 0x66, 0x69, 0x63, 0x69, 0x65, 0x6e, 0x74, 0x6e, 0x65, 0x74,
  0x5f, 0x31, 0x2f, 0x62, 0x61, 0x74, 0x63, 0x68, 0x5f, 0x6e, 0x6f, 0x72,
  0x6d, 0x61, 0x6c, 0x69, 0x7a, 0x61, 0x74, 0x69, 0x6f, 0x6e, 0x5f, 0x32,
  0x5f, 0x31, 0x2f, 0x62, 0x61, 0x74, 0x63, 0x68, 0x6e, 0x6f, 0x72, 0x6d,
  0x2f, 0x6d, 0x75, 0x6c, 0x3b, 0x65, 0x66, 0x66, 0x69, 0x63, 0x69, 0x65,
  0x6e, 0x74, 0x6e, 0x65, 0x74, 0x5f, 0x31, 0x2f, 0x62, 0x61, 0x74, 0x63,
  0x68, 0x5f, 0x6e, 0x6f, 0x72, 0x6d, 0x61, 0x6c, 0x69, 0x7a, 0x61, 0x74,
  0x69, 0x6f, 0x6e, 0x5f, 0x32, 0x5f, 0x31, 0x2f, 0x62, 0x61, 0x74, 0x63,
  0x68, 0x6e, 0x6f, 0x72, 0x6d, 0x2f, 0x73, 0x75, 0x62, 0x3b, 0x65, 0x66,
  0x66, 0x69, 0x63, 0x69, 0x65, 0x6e, 0x74, 0x6e, 0x65, 0x74, 0x5f, 0x31,
  0x2f, 0x63, 0x6f, 0x6e, 0x76, 0x32, 0x64, 0x5f, 0x31, 0x34, 0x5f, 0x31,
  0x2f, 0x63, 0x6f, 0x6e, 0x76, 0x6f, 0x6c, 0x75, 0x74, 0x69, 0x6f, 0x6e,
  0x00, 0x00, 0x00, 0x00, 0x04, 0x00, 0x00, 0x00, 0x01, 0x00, 0x00, 0x00,
  0x10, 0x00, 0x00, 0x00, 0x10, 0x00, 0x00, 0x00, 0x18, 0x00, 0x00, 0x00,
  0x46, 0xfc, 0xff, 0xff, 0x00, 0x00, 0x00, 0x01, 0x18, 0x00, 0x00, 0x00,
  0x28, 0x00, 0x00, 0x00, 0x44, 0x00, 0x00, 0x00, 0x11, 0x00, 0x00, 0x00,
  0x00, 0x00, 0x00, 0x09, 0xb8, 0x01, 0x00, 0x00, 0x04, 0x00, 0x00, 0x00,
  0xff, 0xff, 0xff, 0xff, 0x10, 0x00, 0x00, 0x00, 0x10, 0x00, 0x00, 0x00,
  0x10, 0x00, 0x00, 0x00, 0xec, 0xec, 0xff, 0xff, 0x08, 0x00, 0x00, 0x00,
  0x10, 0x00, 0x00, 0x00, 0x01, 0x00, 0x00, 0x00, 0x80, 0xff, 0xff, 0xff,
  0xff, 0xff, 0xff, 0xff, 0x01, 0x00, 0x00, 0x00, 0x51, 0x54, 0xa2, 0x3c,
  0x7a, 0x01, 0x00, 0x00, 0x65, 0x66, 0x66, 0x69, 0x63, 0x69, 0x65, 0x6e,
  0x74, 0x6e, 0x65, 0x74, 0x5f, 0x31, 0x2f, 0x61, 0x63, 0x74, 0x69, 0x76,
  0x61, 0x74, 0x69, 0x6f, 0x6e, 0x5f, 0x31, 0x5f, 0x32, 0x2f, 0x52, 0x65,
  0x6c, 0x75, 0x3b, 0x65, 0x66, 0x66, 0x69, 0x63, 0x69, 0x65, 0x6e, 0x74,
  0x6e, 0x65, 0x74, 0x5f, 0x31, 0x2f, 0x62, 0x61, 0x74, 0x63, 0x68, 0x5f,
  0x6e, 0x6f, 0x72, 0x6d, 0x61, 0x6c, 0x69, 0x7a, 0x61, 0x74, 0x69, 0x6f,
  0x6e, 0x5f, 0x31, 0x5f, 0x32, 0x2f, 0x62, 0x61, 0x74, 0x63, 0x68, 0x6e,
  0x6f, 0x72, 0x6d, 0x2f, 0x61, 0x64, 0x64, 0x5f, 0x31, 0x3b, 0x65, 0x66,
  0x66, 0x69, 0x63, 0x69, 0x65, 0x6e, 0x74, 0x6e, 0x65, 0x74, 0x5f, 0x31,
  0x2f, 0x62, 0x61, 0x74, 0x63, 0x68, 0x5f, 0x6e, 0x6f, 0x72, 0x6d, 0x61,
  0x6c, 0x69, 0x7a, 0x61, 0x74, 0x69, 0x6f, 0x6e, 0x5f, 0x31, 0x5f, 0x32,
  0x2f, 0x62, 0x61, 0x74, 0x63, 0x68, 0x6e, 0x6f, 0x72, 0x6d, 0x2f, 0x6d,
  0x75, 0x6c, 0x5f, 0x31, 0x3b, 0x65, 0x66, 0x66, 0x69, 0x63, 0x69, 0x65,
  0x6e, 0x74, 0x6e, 0x65, 0x74, 0x5f, 0x31, 0x2f, 0x64, 0x65, 0x70, 0x74,
  0x68, 0x77, 0x69, 0x73, 0x65, 0x5f, 0x63, 0x6f, 0x6e, 0x76, 0x32, 0x64,
  0x5f, 0x31, 0x2f, 0x42, 0x69, 0x61, 0x73, 0x41, 0x64, 0x64, 0x3b, 0x65,
  0x66, 0x66, 0x69, 0x63, 0x69, 0x65, 0x6e, 0x74, 0x6e, 0x65, 0x74, 0x5f,
  0x31, 0x2f, 0x64, 0x65, 0x70, 0x74, 0x68, 0x77, 0x69, 0x73, 0x65, 0x5f,
  0x63, 0x6f, 0x6e, 0x76, 0x32, 0x64, 0x5f, 0x31, 0x2f, 0x64, 0x65, 0x70,
  0x74, 0x68, 0x77, 0x69, 0x73, 0x65, 0x3b, 0x65, 0x66, 0x66, 0x69, 0x63,
  0x69, 0x65, 0x6e, 0x74, 0x6e, 0x65, 0x74, 0x5f, 0x31, 0x2f, 0x64, 0x65,
  0x70, 0x74, 0x68, 0x77, 0x69, 0x73, 0x65, 0x5f, 0x63, 0x6f, 0x6e, 0x76,
  0x32, 0x64, 0x5f, 0x31, 0x2f, 0x53, 0x71, 0x75, 0x65, 0x65, 0x7a, 0x65,
  0x3b, 0x65, 0x66, 0x66, 0x69, 0x63, 0x69, 0x65, 0x6e, 0x74, 0x6e, 0x65,
  0x74, 0x5f, 0x31, 0x2f, 0x62, 0x61, 0x74, 0x63, 0x68, 0x5f, 0x6e, 0x6f,
  0x72, 0x6d, 0x61, 0x6c, 0x69, 0x7a, 0x61, 0x74, 0x69, 0x6f, 0x6e, 0x5f,
  0x31, 0x5f, 0x32, 0x2f, 0x62, 0x61, 0x74, 0x63, 0x68, 0x6e, 0x6f, 0x72,
  0x6d, 0x2f, 0x6d, 0x75, 0x6c, 0x3b, 0x65, 0x66, 0x66, 0x69, 0x63, 0x69,
  0x65, 0x6e, 0x74, 0x6e, 0x65, 0x74, 0x5f, 0x31, 0x2f, 0x62, 0x61, 0x74,
  0x63, 0x68, 0x5f, 0x6e, 0x6f, 0x72, 0x6d, 0x61, 0x6c, 0x69, 0x7a, 0x61,
  0x74, 0x69, 0x6f, 0x6e, 0x5f, 0x31, 0x5f, 0x32, 0x2f, 0x62, 0x61, 0x74,
  0x63, 0x68, 0x6e, 0x6f, 0x72, 0x6d, 0x2f, 0x73, 0x75, 0x62, 0x00, 0x00,
  0x04, 0x00, 0x00, 0x00, 0x01, 0x00, 0x00, 0x00, 0x10, 0x00, 0x00, 0x00,
  0x10, 0x00, 0x00, 0x00, 0x10, 0x00, 0x00, 0x00, 0x2e, 0xfe, 0xff, 0xff,
  0x00, 0x00, 0x00, 0x01, 0x18, 0x00, 0x00, 0x00, 0x28, 0x00, 0x00, 0x00,
  0x48, 0x00, 0x00, 0x00, 0x10, 0x00, 0x00, 0x00, 0x00, 0x00, 0x00, 0x09,
  0xa0, 0x01, 0x00, 0x00, 0x04, 0x00, 0x00, 0x00, 0xff, 0xff, 0xff, 0xff,
  0x10, 0x00, 0x00, 0x00, 0x10, 0x00, 0x00, 0x00, 0x10, 0x00, 0x00, 0x00,
  0xd4, 0xee, 0xff, 0xff, 0x08, 0x00, 0x00, 0x00, 0x14, 0x00, 0x00, 0x00,
  0x01, 0x00, 0x00, 0x00, 0x80, 0xff, 0xff, 0xff, 0xff, 0xff, 0xff, 0xff,
  0x00, 0x00, 0x00, 0x00, 0x01, 0x00, 0x00, 0x00, 0xc8, 0x7f, 0x62, 0x3c,
  0x5e, 0x01, 0x00, 0x00, 0x65, 0x66, 0x66, 0x69, 0x63, 0x69, 0x65, 0x6e,
  0x74, 0x6e, 0x65, 0x74, 0x5f, 0x31, 0x2f, 0x61, 0x63, 0x74, 0x69, 0x76,
  0x61, 0x74, 0x69, 0x6f, 0x6e, 0x5f, 0x31, 0x2f, 0x52, 0x65, 0x6c, 0x75,
  0x3b, 0x65, 0x66, 0x66, 0x69, 0x63, 0x69, 0x65, 0x6e, 0x74, 0x6e, 0x65,
  0x74, 0x5f, 0x31, 0x2f, 0x62, 0x61, 0x74, 0x63, 0x68, 0x5f, 0x6e, 0x6f,
  0x72, 0x6d, 0x61, 0x6c, 0x69, 0x7a, 0x61, 0x74, 0x69, 0x6f, 0x6e, 0x5f,
  0x31, 0x2f, 0x62, 0x61, 0x74, 0x63, 0x68, 0x6e, 0x6f, 0x72, 0x6d, 0x2f,
  0x61, 0x64, 0x64, 0x5f, 0x31, 0x3b, 0x65, 0x66, 0x66, 0x69, 0x63, 0x69,
  0x65, 0x6e, 0x74, 0x6e, 0x65, 0x74, 0x5f, 0x31, 0x2f, 0x62, 0x61, 0x74,
  0x63, 0x68, 0x5f, 0x6e, 0x6f, 0x72, 0x6d, 0x61, 0x6c, 0x69, 0x7a, 0x61,
  0x74, 0x69, 0x6f, 0x6e, 0x5f, 0x31, 0x2f, 0x62, 0x61, 0x74, 0x63, 0x68,
  0x6e, 0x6f, 0x72, 0x6d, 0x2f, 0x6d, 0x75, 0x6c, 0x5f, 0x31, 0x3b, 0x65,
  0x66, 0x66, 0x69, 0x63, 0x69, 0x65, 0x6e, 0x74, 0x6e, 0x65, 0x74, 0x5f,
  0x31, 0x2f, 0x63, 0x6f, 0x6e, 0x76, 0x32, 0x64, 0x5f, 0x31, 0x33, 0x5f,
  0x31, 0x2f, 0x53, 0x71, 0x75, 0x65, 0x65, 0x7a, 0x65, 0x3b, 0x65, 0x66,
  0x66, 0x69, 0x63, 0x69, 0x65, 0x6e, 0x74, 0x6e, 0x65, 0x74, 0x5f, 0x31,
  0x2f, 0x63, 0x6f, 0x6e, 0x76, 0x32, 0x64, 0x5f, 0x31, 0x33, 0x5f, 0x31,
  0x2f, 0x42, 0x69, 0x61, 0x73, 0x41, 0x64, 0x64, 0x3b, 0x65, 0x66, 0x66,
  0x69, 0x63, 0x69, 0x65, 0x6e, 0x74, 0x6e, 0x65, 0x74, 0x5f, 0x31, 0x2f,
  0x62, 0x61, 0x74, 0x63, 0x68, 0x5f, 0x6e, 0x6f, 0x72, 0x6d, 0x61, 0x6c,
  0x69, 0x7a, 0x61, 0x74, 0x69, 0x6f, 0x6e, 0x5f, 0x31, 0x2f, 0x62, 0x61,
  0x74, 0x63, 0x68, 0x6e, 0x6f, 0x72, 0x6d, 0x2f, 0x6d, 0x75, 0x6c, 0x3b,
  0x65, 0x66, 0x66, 0x69, 0x63, 0x69, 0x65, 0x6e, 0x74, 0x6e, 0x65, 0x74,
  0x5f, 0x31, 0x2f, 0x63, 0x6f, 0x6e, 0x76, 0x32, 0x64, 0x5f, 0x31, 0x33,
  0x5f, 0x31, 0x2f, 0x63, 0x6f, 0x6e, 0x76, 0x6f, 0x6c, 0x75, 0x74, 0x69,
  0x6f, 0x6e, 0x3b, 0x65, 0x66, 0x66, 0x69, 0x63, 0x69, 0x65, 0x6e, 0x74,
  0x6e, 0x65, 0x74, 0x5f, 0x31, 0x2f, 0x62, 0x61, 0x74, 0x63, 0x68, 0x5f,
  0x6e, 0x6f, 0x72, 0x6d, 0x61, 0x6c, 0x69, 0x7a, 0x61, 0x74, 0x69, 0x6f,
  0x6e, 0x5f, 0x31, 0x2f, 0x62, 0x61, 0x74, 0x63, 0x68, 0x6e, 0x6f, 0x72,
  0x6d, 0x2f, 0x73, 0x75, 0x62, 0x31, 0x00, 0x00, 0x04, 0x00, 0x00, 0x00,
  0x01, 0x00, 0x00, 0x00, 0x10, 0x00, 0x00, 0x00, 0x10, 0x00, 0x00, 0x00,
  0x10, 0x00, 0x00, 0x00, 0x00, 0x00, 0x16, 0x00, 0x20, 0x00, 0x1c, 0x00,
  0x1b, 0x00, 0x14, 0x00, 0x10, 0x00, 0x0c, 0x00, 0x00, 0x00, 0x00, 0x00,
  0x08, 0x00, 0x07, 0x00, 0x16, 0x00, 0x00, 0x00, 0x00, 0x00, 0x00, 0x01,
  0x18, 0x00, 0x00, 0x00, 0x28, 0x00, 0x00, 0x00, 0x48, 0x00, 0x00, 0x00,
  0x0f, 0x00, 0x00, 0x00, 0x00, 0x00, 0x00, 0x09, 0x50, 0x00, 0x00, 0x00,
  0x04, 0x00, 0x00, 0x00, 0xff, 0xff, 0xff, 0xff, 0x20, 0x00, 0x00, 0x00,
  0x20, 0x00, 0x00, 0x00, 0x03, 0x00, 0x00, 0x00, 0xbc, 0xf0, 0xff, 0xff,
  0x08, 0x00, 0x00, 0x00, 0x14, 0x00, 0x00, 0x00, 0x01, 0x00, 0x00, 0x00,
  0x80, 0xff, 0xff, 0xff, 0xff, 0xff, 0xff, 0xff, 0x00, 0x00, 0x00, 0x00,
  0x01, 0x00, 0x00, 0x00, 0x81, 0x80, 0x80, 0x3b, 0x0c, 0x00, 0x00, 0x00,
  0x74, 0x66, 0x6c, 0x2e, 0x71, 0x75, 0x61, 0x6e, 0x74, 0x69, 0x7a, 0x65,
  0x00, 0x00, 0x00, 0x00, 0x04, 0x00, 0x00, 0x00, 0x01, 0x00, 0x00, 0x00,
  0x20, 0x00, 0x00, 0x00, 0x20, 0x00, 0x00, 0x00, 0x03, 0x00, 0x00, 0x00,
  0x4a, 0xf0, 0xff, 0xff, 0x00, 0x00, 0x00, 0x01, 0x14, 0x00, 0x00, 0x00,
  0xe8, 0x00, 0x00, 0x00, 0x0e, 0x00, 0x00, 0x00, 0x00, 0x00, 0x00, 0x09,
  0xf4, 0x00, 0x00, 0x00, 0x24, 0xf1, 0xff, 0xff, 0x08, 0x00, 0x00, 0x00,
  0x8c, 0x00, 0x00, 0x00, 0x10, 0x00, 0x00, 0x00, 0x00, 0x00, 0x00, 0x00,
  0x00, 0x00, 0x00, 0x00, 0x00, 0x00, 0x00, 0x00, 0x00, 0x00, 0x00, 0x00,
  0x00, 0x00, 0x00, 0x00, 0x00, 0x00, 0x00, 0x00, 0x00, 0x00, 0x00, 0x00,
  0x00, 0x00, 0x00, 0x00, 0x00, 0x00, 0x00, 0x00, 0x00, 0x00, 0x00, 0x00,
  0x00, 0x00, 0x00, 0x00, 0x00, 0x00, 0x00, 0x00, 0x00, 0x00, 0x00, 0x00,
  0x00, 0x00, 0x00, 0x00, 0x00, 0x00, 0x00, 0x00, 0x00, 0x00, 0x00, 0x00,
  0x00, 0x00, 0x00, 0x00, 0x00, 0x00, 0x00, 0x00, 0x00, 0x00, 0x00, 0x00,
  0x00, 0x00, 0x00, 0x00, 0x00, 0x00, 0x00, 0x00, 0x00, 0x00, 0x00, 0x00,
  0x00, 0x00, 0x00, 0x00, 0x00, 0x00, 0x00, 0x00, 0x00, 0x00, 0x00, 0x00,
  0x00, 0x00, 0x00, 0x00, 0x00, 0x00, 0x00, 0x00, 0x00, 0x00, 0x00, 0x00,
  0x00, 0x00, 0x00, 0x00, 0x00, 0x00, 0x00, 0x00, 0x00, 0x00, 0x00, 0x00,
  0x00, 0x00, 0x00, 0x00, 0x00, 0x00, 0x00, 0x00, 0x10, 0x00, 0x00, 0x00,
  0xbf, 0x7f, 0xe5, 0x3b, 0x6d, 0x74, 0xce, 0x3b, 0xd7, 0x86, 0x48, 0x3b,
  0xb1, 0x19, 0xe1, 0x3b, 0xda, 0x5f, 0xd9, 0x3b, 0xae, 0x38, 0xa3, 0x3b,
  0x93, 0x1a, 0xd0, 0x3b, 0x0d, 0xb5, 0x45, 0x3b, 0xf9, 0xec, 0xe8, 0x3b,
  0x4d, 0x82, 0x46, 0x3b, 0x17, 0x0a, 0x67, 0x3b, 0x4c, 0x9c, 0xd6, 0x3b,
  0x9f, 0x75, 0x96, 0x3b, 0x4b, 0x58, 0x06, 0x3c, 0x23, 0xc9, 0xb0, 0x3b,
  0x86, 0xdb, 0x9d, 0x3b, 0x13, 0x00, 0x00, 0x00, 0x74, 0x66, 0x6c, 0x2e,
  0x70, 0x73, 0x65, 0x75, 0x64, 0x6f, 0x5f, 0x71, 0x63, 0x6f, 0x6e, 0x73,
  0x74, 0x31, 0x31, 0x00, 0x04, 0x00, 0x00, 0x00, 0x10, 0x00, 0x00, 0x00,
  0x03, 0x00, 0x00, 0x00, 0x03, 0x00, 0x00, 0x00, 0x03, 0x00, 0x00, 0x00,
  0x6a, 0xf1, 0xff, 0xff, 0x00, 0x00, 0x00, 0x01, 0x14, 0x00, 0x00, 0x00,
  0xe8, 0x00, 0x00, 0x00, 0x0d, 0x00, 0x00, 0x00, 0x00, 0x00, 0x00, 0x02,
  0xf4, 0x00, 0x00, 0x00, 0x44, 0xf2, 0xff, 0xff, 0x08, 0x00, 0x00, 0x00,
  0x8c, 0x00, 0x00, 0x00, 0x10, 0x00, 0x00, 0x00, 0x00, 0x00, 0x00, 0x00,
  0x00, 0x00, 0x00, 0x00, 0x00, 0x00, 0x00, 0x00, 0x00, 0x00, 0x00, 0x00,
  0x00, 0x00, 0x00, 0x00, 0x00, 0x00, 0x00, 0x00, 0x00, 0x00, 0x00, 0x00,
  0x00, 0x00, 0x00, 0x00, 0x00, 0x00, 0x00, 0x00, 0x00, 0x00, 0x00, 0x00,
  0x00, 0x00, 0x00, 0x00, 0x00, 0x00, 0x00, 0x00, 0x00, 0x00, 0x00, 0x00,
  0x00, 0x00, 0x00, 0x00, 0x00, 0x00, 0x00, 0x00, 0x00, 0x00, 0x00, 0x00,
  0x00, 0x00, 0x00, 0x00, 0x00, 0x00, 0x00, 0x00, 0x00, 0x00, 0x00, 0x00,
  0x00, 0x00, 0x00, 0x00, 0x00, 0x00, 0x00, 0x00, 0x00, 0x00, 0x00, 0x00,
  0x00, 0x00, 0x00, 0x00, 0x00, 0x00, 0x00, 0x00, 0x00, 0x00, 0x00, 0x00,
  0x00, 0x00, 0x00, 0x00, 0x00, 0x00, 0x00, 0x00, 0x00, 0x00, 0x00, 0x00,
  0x00, 0x00, 0x00, 0x00, 0x00, 0x00, 0x00, 0x00, 0x00, 0x00, 0x00, 0x00,
  0x00, 0x00, 0x00, 0x00, 0x00, 0x00, 0x00, 0x00, 0x10, 0x00, 0x00, 0x00,
  0x26, 0x66, 0xe6, 0x37, 0xb1, 0x43, 0xcf, 0x37, 0x28, 0x50, 0x49, 0x37,
  0xae, 0xfb, 0xe1, 0x37, 0x15, 0x3a, 0xda, 0x37, 0x8b, 0xdc, 0xa3, 0x37,
  0x7f, 0xeb, 0xd0, 0x37, 0x89, 0x7b, 0x46, 0x37, 0xd1, 0xd6, 0xe9, 0x37,
  0x97, 0x49, 0x47, 0x37, 0x0a, 0xf2, 0x67, 0x37, 0xc1, 0x73, 0xd7, 0x37,
  0xac, 0x0c, 0x97, 0x37, 0x2b, 0xdf, 0x06, 0x38, 0x9e, 0x7a, 0xb1, 0x37,
  0x01, 0x7a, 0x9e, 0x37, 0x13, 0x00, 0x00, 0x00, 0x74, 0x66, 0x6c, 0x2e,
  0x70, 0x73, 0x65, 0x75, 0x64, 0x6f, 0x5f, 0x71, 0x63, 0x6f, 0x6e, 0x73,
  0x74, 0x31, 0x30, 0x00, 0x01, 0x00, 0x00, 0x00, 0x10, 0x00, 0x00, 0x00,
  0x7e, 0xf2, 0xff, 0xff, 0x00, 0x00, 0x00, 0x01, 0x14, 0x00, 0x00, 0x00,
  0xec, 0x00, 0x00, 0x00, 0x0c, 0x00, 0x00, 0x00, 0x00, 0x00, 0x00, 0x09,
  0xf8, 0x00, 0x00, 0x00, 0xda, 0xfa, 0xff, 0xff, 0x03, 0x00, 0x00, 0x00,
  0x08, 0x00, 0x00, 0x00, 0x8c, 0x00, 0x00, 0x00, 0x10, 0x00, 0x00, 0x00,
  0x00, 0x00, 0x00, 0x00, 0x00, 0x00, 0x00, 0x00, 0x00, 0x00, 0x00, 0x00,
  0x00, 0x00, 0x00, 0x00, 0x00, 0x00, 0x00, 0x00, 0x00, 0x00, 0x00, 0x00,
  0x00, 0x00, 0x00, 0x00, 0x00, 0x00, 0x00, 0x00, 0x00, 0x00, 0x00, 0x00,
  0x00, 0x00, 0x00, 0x00, 0x00, 0x00, 0x00, 0x00, 0x00, 0x00, 0x00, 0x00,
  0x00, 0x00, 0x00, 0x00, 0x00, 0x00, 0x00, 0x00, 0x00, 0x00, 0x00, 0x00,
  0x00, 0x00, 0x00, 0x00, 0x00, 0x00, 0x00, 0x00, 0x00, 0x00, 0x00, 0x00,
  0x00, 0x00, 0x00, 0x00, 0x00, 0x00, 0x00, 0x00, 0x00, 0x00, 0x00, 0x00,
  0x00, 0x00, 0x00, 0x00, 0x00, 0x00, 0x00, 0x00, 0x00, 0x00, 0x00, 0x00,
  0x00, 0x00, 0x00, 0x00, 0x00, 0x00, 0x00, 0x00, 0x00, 0x00, 0x00, 0x00,
  0x00, 0x00, 0x00, 0x00, 0x00, 0x00, 0x00, 0x00, 0x00, 0x00, 0x00, 0x00,
  0x00, 0x00, 0x00, 0x00, 0x00, 0x00, 0x00, 0x00, 0x00, 0x00, 0x00, 0x00,
  0x10, 0x00, 0x00, 0x00, 0x27, 0x12, 0x57, 0x3c, 0x0e, 0x76, 0x3c, 0x3c,
  0xcb, 0x42, 0xea, 0x3b, 0x30, 0x8b, 0x21, 0x3c, 0x37, 0x5f, 0x2e, 0x3c,
  0x90, 0xc0, 0x8e, 0x3b, 0x50, 0x1d, 0xbc, 0x3b, 0x8b, 0xac, 0xa4, 0x3b,
  0xae, 0x1d, 0xca, 0x3b, 0xcc, 0xf2, 0xdc, 0x3b, 0x16, 0x9d, 0x22, 0x3c,
  0x05, 0x39, 0x20, 0x3c, 0x58, 0x94, 0x14, 0x3c, 0x0e, 0x3a, 0x03, 0x3c,
  0xd8, 0xb3, 0xc0, 0x3b, 0xa4, 0x31, 0x7c, 0x3c, 0x12, 0x00, 0x00, 0x00,
  0x74, 0x66, 0x6c, 0x2e, 0x70, 0x73, 0x65, 0x75, 0x64, 0x6f, 0x5f, 0x71,
  0x63, 0x6f, 0x6e, 0x73, 0x74, 0x39, 0x00, 0x00, 0x04, 0x00, 0x00, 0x00,
  0x01, 0x00, 0x00, 0x00, 0x03, 0x00, 0x00, 0x00, 0x03, 0x00, 0x00, 0x00,
  0x10, 0x00, 0x00, 0x00, 0xa2, 0xf3, 0xff, 0xff, 0x00, 0x00, 0x00, 0x01,
  0x14, 0x00, 0x00, 0x00, 0xe4, 0x00, 0x00, 0x00, 0x0b, 0x00, 0x00, 0x00,
  0x00, 0x00, 0x00, 0x02, 0xf0, 0x00, 0x00, 0x00, 0x7c, 0xf4, 0xff, 0xff,
  0x08, 0x00, 0x00, 0x00, 0x88, 0x00, 0x00, 0x00, 0x10, 0x00, 0x00, 0x00,
  0x00, 0x00, 0x00, 0x00, 0x00, 0x00, 0x00, 0x00, 0x00, 0x00, 0x00, 0x00,
  0x00, 0x00, 0x00, 0x00, 0x00, 0x00, 0x00, 0x00, 0x00, 0x00, 0x00, 0x00,
  0x00, 0x00, 0x00, 0x00, 0x00, 0x00, 0x00, 0x00, 0x00, 0x00, 0x00, 0x00,
  0x00, 0x00, 0x00, 0x00, 0x00, 0x00, 0x00, 0x00, 0x00, 0x00, 0x00, 0x00,
  0x00, 0x00, 0x00, 0x00, 0x00, 0x00, 0x00, 0x00, 0x00, 0x00, 0x00, 0x00,
  0x00, 0x00, 0x00, 0x00, 0x00, 0x00, 0x00, 0x00, 0x00, 0x00, 0x00, 0x00,
  0x00, 0x00, 0x00, 0x00, 0x00, 0x00, 0x00, 0x00, 0x00, 0x00, 0x00, 0x00,
  0x00, 0x00, 0x00, 0x00, 0x00, 0x00, 0x00, 0x00, 0x00, 0x00, 0x00, 0x00,
  0x00, 0x00, 0x00, 0x00, 0x00, 0x00, 0x00, 0x00, 0x00, 0x00, 0x00, 0x00,
  0x00, 0x00, 0x00, 0x00, 0x00, 0x00, 0x00, 0x00, 0x00, 0x00, 0x00, 0x00,
  0x00, 0x00, 0x00, 0x00, 0x00, 0x00, 0x00, 0x00, 0x10, 0x00, 0x00, 0x00,
  0x60, 0x49, 0x3e, 0x39, 0x4a, 0xbe, 0x26, 0x39, 0xe5, 0x43, 0xcf, 0x38,
  0x83, 0xed, 0x0e, 0x39, 0x18, 0x47, 0x1a, 0x39, 0x80, 0x9a, 0x7c, 0x38,
  0xc6, 0x6f, 0xa6, 0x38, 0x85, 0xb2, 0x91, 0x38, 0x16, 0xd3, 0xb2, 0x38,
  0xa1, 0x7c, 0xc3, 0x38, 0xd8, 0xdf, 0x0f, 0x39, 0x50, 0xc2, 0x0d, 0x39,
  0x1f, 0x75, 0x03, 0x39, 0x81, 0x35, 0xe8, 0x38, 0xf4, 0x7e, 0xaa, 0x38,
  0xb4, 0x21, 0x5f, 0x39, 0x12, 0x00, 0x00, 0x00, 0x74, 0x66, 0x6c, 0x2e,
  0x70, 0x73, 0x65, 0x75, 0x64, 0x6f, 0x5f, 0x71, 0x63, 0x6f, 0x6e, 0x73,
  0x74, 0x38, 0x00, 0x00, 0x01, 0x00, 0x00, 0x00, 0x10, 0x00, 0x00, 0x00,
  0xb2, 0xf4, 0xff, 0xff, 0x00, 0x00, 0x00, 0x01, 0x14, 0x00, 0x00, 0x00,
  0x48, 0x01, 0x00, 0x00, 0x0a, 0x00, 0x00, 0x00, 0x00, 0x00, 0x00, 0x09,
  0x54, 0x01, 0x00, 0x00, 0x8c, 0xf5, 0xff, 0xff, 0x08, 0x00, 0x00, 0x00,
  0xcc, 0x00, 0x00, 0x00, 0x18, 0x00, 0x00, 0x00, 0x00, 0x00, 0x00, 0x00,
  0x00, 0x00, 0x00, 0x00, 0x00, 0x00, 0x00, 0x00, 0x00, 0x00, 0x00, 0x00,
  0x00, 0x00, 0x00, 0x00, 0x00, 0x00, 0x00, 0x00, 0x00, 0x00, 0x00, 0x00,
  0x00, 0x00, 0x00, 0x00, 0x00, 0x00, 0x00, 0x00, 0x00, 0x00, 0x00, 0x00,
  0x00, 0x00, 0x00, 0x00, 0x00, 0x00, 0x00, 0x00, 0x00, 0x00, 0x00, 0x00,
  0x00, 0x00, 0x00, 0x00, 0x00, 0x00, 0x00, 0x00, 0x00, 0x00, 0x00, 0x00,
  0x00, 0x00, 0x00, 0x00, 0x00, 0x00, 0x00, 0x00, 0x00, 0x00, 0x00, 0x00,
  0x00, 0x00, 0x00, 0x00, 0x00, 0x00, 0x00, 0x00, 0x00, 0x00, 0x00, 0x00,
  0x00, 0x00, 0x00, 0x00, 0x00, 0x00, 0x00, 0x00, 0x00, 0x00, 0x00, 0x00,
  0x00, 0x00, 0x00, 0x00, 0x00, 0x00, 0x00, 0x00, 0x00, 0x00, 0x00, 0x00,
  0x00, 0x00, 0x00, 0x00, 0x00, 0x00, 0x00, 0x00, 0x00, 0x00, 0x00, 0x00,
  0x00, 0x00, 0x00, 0x00, 0x00, 0x00, 0x00, 0x00, 0x00, 0x00, 0x00, 0x00,
  0x00, 0x00, 0x00, 0x00, 0x00, 0x00, 0x00, 0x00, 0x00, 0x00, 0x00, 0x00,
  0x00, 0x00, 0x00, 0x00, 0x00, 0x00, 0x00, 0x00, 0x00, 0x00, 0x00, 0x00,
  0x00, 0x00, 0x00, 0x00, 0x00, 0x00, 0x00, 0x00, 0x00, 0x00, 0x00, 0x00,
  0x00, 0x00, 0x00, 0x00, 0x00, 0x00, 0x00, 0x00, 0x00, 0x00, 0x00, 0x00,
  0x00, 0x00, 0x00, 0x00, 0x00, 0x00, 0x00, 0x00, 0x00, 0x00, 0x00, 0x00,
  0x18, 0x00, 0x00, 0x00, 0xcd, 0x62, 0xa9, 0x3b, 0x66, 0xad, 0xb4, 0x3b,
  0x83, 0x3a, 0xe2, 0x3b, 0x6f, 0x99, 0x5d, 0x3b, 0xf7, 0x90, 0x9d, 0x3b,
  0x69, 0x34, 0xc9, 0x3b, 0xbc, 0xa8, 0xdb, 0x3b, 0x63, 0xfd, 0x42, 0x3b,
  0x54, 0xc0, 0x89, 0x3b, 0xc9, 0x14, 0x92, 0x3b, 0x05, 0x5b, 0xb1, 0x3b,
  0xc1, 0xb2, 0xdd, 0x3b, 0xd7, 0x5f, 0x03, 0x3c, 0x83, 0x0d, 0x4d, 0x3b,
  0xe6, 0xc7, 0xcb, 0x3b, 0x0d, 0x23, 0x66, 0x3b, 0x63, 0x8a, 0x0b, 0x3c,
  0x33, 0xcb, 0x41, 0x3b, 0x07, 0x62, 0x07, 0x3c, 0x42, 0x41, 0x8d, 0x3b,
  0x3d, 0x2a, 0xc1, 0x3b, 0x1a, 0x72, 0xb3, 0x3b, 0x09, 0xc8, 0xc6, 0x3b,
  0x46, 0xfd, 0xe0, 0x3b, 0x12, 0x00, 0x00, 0x00, 0x74, 0x66, 0x6c, 0x2e,
  0x70, 0x73, 0x65, 0x75, 0x64, 0x6f, 0x5f, 0x71, 0x63, 0x6f, 0x6e, 0x73,
  0x74, 0x37, 0x00, 0x00, 0x04, 0x00, 0x00, 0x00, 0x18, 0x00, 0x00, 0x00,
  0x01, 0x00, 0x00, 0x00, 0x01, 0x00, 0x00, 0x00, 0x10, 0x00, 0x00, 0x00,
  0x32, 0xf6, 0xff, 0xff, 0x00, 0x00, 0x00, 0x01, 0x14, 0x00, 0x00, 0x00,
  0x44, 0x01, 0x00, 0x00, 0x09, 0x00, 0x00, 0x00, 0x00, 0x00, 0x00, 0x02,
  0x50, 0x01, 0x00, 0x00, 0x0c, 0xf7, 0xff, 0xff, 0x08, 0x00, 0x00, 0x00,
  0xc8, 0x00, 0x00, 0x00, 0x18, 0x00, 0x00, 0x00, 0x00, 0x00, 0x00, 0x00,
  0x00, 0x00, 0x00, 0x00, 0x00, 0x00, 0x00, 0x00, 0x00, 0x00, 0x00, 0x00,
  0x00, 0x00, 0x00, 0x00, 0x00, 0x00, 0x00, 0x00, 0x00, 0x00, 0x00, 0x00,
  0x00, 0x00, 0x00, 0x00, 0x00, 0x00, 0x00, 0x00, 0x00, 0x00, 0x00, 0x00,
  0x00, 0x00, 0x00, 0x00, 0x00, 0x00, 0x00, 0x00, 0x00, 0x00, 0x00, 0x00,
  0x00, 0x00, 0x00, 0x00, 0x00, 0x00, 0x00, 0x00, 0x00, 0x00, 0x00, 0x00,
  0x00, 0x00, 0x00, 0x00, 0x00, 0x00, 0x00, 0x00, 0x00, 0x00, 0x00, 0x00,
  0x00, 0x00, 0x00, 0x00, 0x00, 0x00, 0x00, 0x00, 0x00, 0x00, 0x00, 0x00,
  0x00, 0x00, 0x00, 0x00, 0x00, 0x00, 0x00, 0x00, 0x00, 0x00, 0x00, 0x00,
  0x00, 0x00, 0x00, 0x00, 0x00, 0x00, 0x00, 0x00, 0x00, 0x00, 0x00, 0x00,
  0x00, 0x00, 0x00, 0x00, 0x00, 0x00, 0x00, 0x00, 0x00, 0x00, 0x00, 0x00,
  0x00, 0x00, 0x00, 0x00, 0x00, 0x00, 0x00, 0x00, 0x00, 0x00, 0x00, 0x00,
  0x00, 0x00, 0x00, 0x00, 0x00, 0x00, 0x00, 0x00, 0x00, 0x00, 0x00, 0x00,
  0x00, 0x00, 0x00, 0x00, 0x00, 0x00, 0x00, 0x00, 0x00, 0x00, 0x00, 0x00,
  0x00, 0x00, 0x00, 0x00, 0x00, 0x00, 0x00, 0x00, 0x00, 0x00, 0x00, 0x00,
  0x00, 0x00, 0x00, 0x00, 0x00, 0x00, 0x00, 0x00, 0x00, 0x00, 0x00, 0x00,
  0x00, 0x00, 0x00, 0x00, 0x00, 0x00, 0x00, 0x00, 0x18, 0x00, 0x00, 0x00,
  0x9f, 0xd0, 0xd6, 0x38, 0x79, 0x22, 0xe5, 0x38, 0x8a, 0x73, 0x0f, 0x39,
  0x15, 0x84, 0x8c, 0x38, 0x43, 0xd3, 0xc7, 0x38, 0xdf, 0x2a, 0xff, 0x38,
  0x20, 0x49, 0x0b, 0x39, 0x23, 0x49, 0x77, 0x38, 0x28, 0xb2, 0xae, 0x38,
  0x88, 0x42, 0xb9, 0x38, 0x06, 0xec, 0xe0, 0x38, 0x23, 0x94, 0x0c, 0x39,
  0xd6, 0x9b, 0x26, 0x39, 0x16, 0x06, 0x82, 0x38, 0x9e, 0x37, 0x01, 0x39,
  0xfb, 0xed, 0x91, 0x38, 0x10, 0xf7, 0x30, 0x39, 0xd5, 0xc4, 0x75, 0x38,
  0x3f, 0xb1, 0x2b, 0x39, 0xa4, 0x23, 0xb3, 0x38, 0xb3, 0xf8, 0xf4, 0x38,
  0x9d, 0x92, 0xe3, 0x38, 0x1c, 0x18, 0xfc, 0x38, 0x61, 0xaa, 0x0e, 0x39,
  0x12, 0x00, 0x00, 0x00, 0x74, 0x66, 0x6c, 0x2e, 0x70, 0x73, 0x65, 0x75,
  0x64, 0x6f, 0x5f, 0x71, 0x63, 0x6f, 0x6e, 0x73, 0x74, 0x36, 0x00, 0x00,
  0x01, 0x00, 0x00, 0x00, 0x18, 0x00, 0x00, 0x00, 0xa2, 0xf7, 0xff, 0xff,
  0x00, 0x00, 0x00, 0x01, 0x28, 0x00, 0x00, 0x00, 0x60, 0x01, 0x00, 0x00,
  0x08, 0x00, 0x00, 0x00, 0x00, 0x00, 0x00, 0x09, 0x6c, 0x01, 0x00, 0x00,
  0x00, 0x00, 0x12, 0x00, 0x10, 0x00, 0x00, 0x00, 0x00, 0x00, 0x0c, 0x00,
  0x08, 0x00, 0x00, 0x00, 0x00, 0x00, 0x04, 0x00, 0x12, 0x00, 0x00, 0x00,
  0x03, 0x00, 0x00, 0x00, 0x08, 0x00, 0x00, 0x00, 0xcc, 0x00, 0x00, 0x00,
  0x18, 0x00, 0x00, 0x00, 0x00, 0x00, 0x00, 0x00, 0x00, 0x00, 0x00, 0x00,
  0x00, 0x00, 0x00, 0x00, 0x00, 0x00, 0x00, 0x00, 0x00, 0x00, 0x00, 0x00,
  0x00, 0x00, 0x00, 0x00, 0x00, 0x00, 0x00, 0x00, 0x00, 0x00, 0x00, 0x00,
  0x00, 0x00, 0x00, 0x00, 0x00, 0x00, 0x00, 0x00, 0x00, 0x00, 0x00, 0x00,
  0x00, 0x00, 0x00, 0x00, 0x00, 0x00, 0x00, 0x00, 0x00, 0x00, 0x00, 0x00,
  0x00, 0x00, 0x00, 0x00, 0x00, 0x00, 0x00, 0x00, 0x00, 0x00, 0x00, 0x00,
  0x00, 0x00, 0x00, 0x00, 0x00, 0x00, 0x00, 0x00, 0x00, 0x00, 0x00, 0x00,
  0x00, 0x00, 0x00, 0x00, 0x00, 0x00, 0x00, 0x00, 0x00, 0x00, 0x00, 0x00,
  0x00, 0x00, 0x00, 0x00, 0x00, 0x00, 0x00, 0x00, 0x00, 0x00, 0x00, 0x00,
  0x00, 0x00, 0x00, 0x00, 0x00, 0x00, 0x00, 0x00, 0x00, 0x00, 0x00, 0x00,
  0x00, 0x00, 0x00, 0x00, 0x00, 0x00, 0x00, 0x00, 0x00, 0x00, 0x00, 0x00,
  0x00, 0x00, 0x00, 0x00, 0x00, 0x00, 0x00, 0x00, 0x00, 0x00, 0x00, 0x00,
  0x00, 0x00, 0x00, 0x00, 0x00, 0x00, 0x00, 0x00, 0x00, 0x00, 0x00, 0x00,
  0x00, 0x00, 0x00, 0x00, 0x00, 0x00, 0x00, 0x00, 0x00, 0x00, 0x00, 0x00,
  0x00, 0x00, 0x00, 0x00, 0x00, 0x00, 0x00, 0x00, 0x00, 0x00, 0x00, 0x00,
  0x00, 0x00, 0x00, 0x00, 0x00, 0x00, 0x00, 0x00, 0x00, 0x00, 0x00, 0x00,
  0x00, 0x00, 0x00, 0x00, 0x00, 0x00, 0x00, 0x00, 0x18, 0x00, 0x00, 0x00,
  0x16, 0x3e, 0xdf, 0x3b, 0x8d, 0xf8, 0xae, 0x3b, 0xef, 0x56, 0xd2, 0x3b,
  0x52, 0xf6, 0x16, 0x3c, 0xed, 0xc3, 0xf3, 0x3b, 0x44, 0x9e, 0x66, 0x3b,
  0x53, 0xb2, 0x9a, 0x3b, 0xba, 0x65, 0x22, 0x3c, 0x4c, 0x22, 0xd9, 0x3b,
  0x9e, 0xc6, 0xf5, 0x3b, 0x4e, 0x34, 0xfc, 0x3b, 0x7e, 0x41, 0xb8, 0x3b,
  0xcd, 0x08, 0x9d, 0x3b, 0x7c, 0xa8, 0x23, 0x3c, 0xd8, 0x37, 0xd6, 0x3b,
  0x5f, 0x9a, 0xec, 0x3b, 0x32, 0xa0, 0xa1, 0x3b, 0x87, 0xeb, 0xf8, 0x3b,
  0x04, 0x9a, 0xa0, 0x3b, 0x91, 0xc7, 0xac, 0x3b, 0x79, 0x80, 0xed, 0x3b,
  0xa5, 0x8a, 0x98, 0x3b, 0x0e, 0xdd, 0x38, 0x3c, 0xcc, 0x04, 0x5f, 0x3c,
  0x12, 0x00, 0x00, 0x00, 0x74, 0x66, 0x6c, 0x2e, 0x70, 0x73, 0x65, 0x75,
  0x64, 0x6f, 0x5f, 0x71, 0x63, 0x6f, 0x6e, 0x73, 0x74, 0x35, 0x00, 0x00,
  0x04, 0x00, 0x00, 0x00, 0x01, 0x00, 0x00, 0x00, 0x03, 0x00, 0x00, 0x00,
  0x03, 0x00, 0x00, 0x00, 0x18, 0x00, 0x00, 0x00, 0x3a, 0xf9, 0xff, 0xff,
  0x00, 0x00, 0x00, 0x01, 0x14, 0x00, 0x00, 0x00, 0x44, 0x01, 0x00, 0x00,
  0x07, 0x00, 0x00, 0x00, 0x00, 0x00, 0x00, 0x02, 0x50, 0x01, 0x00, 0x00,
  0x14, 0xfa, 0xff, 0xff, 0x08, 0x00, 0x00, 0x00, 0xc8, 0x00, 0x00, 0x00,
  0x18, 0x00, 0x00, 0x00, 0x00, 0x00, 0x00, 0x00, 0x00, 0x00, 0x00, 0x00,
  0x00, 0x00, 0x00, 0x00, 0x00, 0x00, 0x00, 0x00, 0x00, 0x00, 0x00, 0x00,
  0x00, 0x00, 0x00, 0x00, 0x00, 0x00, 0x00, 0x00, 0x00, 0x00, 0x00, 0x00,
  0x00, 0x00, 0x00, 0x00, 0x00, 0x00, 0x00, 0x00, 0x00, 0x00, 0x00, 0x00,
  0x00, 0x00, 0x00, 0x00, 0x00, 0x00, 0x00, 0x00, 0x00, 0x00, 0x00, 0x00,
  0x00, 0x00, 0x00, 0x00, 0x00, 0x00, 0x00, 0x00, 0x00, 0x00, 0x00, 0x00,
  0x00, 0x00, 0x00, 0x00, 0x00, 0x00, 0x00, 0x00, 0x00, 0x00, 0x00, 0x00,
  0x00, 0x00, 0x00, 0x00, 0x00, 0x00, 0x00, 0x00, 0x00, 0x00, 0x00, 0x00,
  0x00, 0x00, 0x00, 0x00, 0x00, 0x00, 0x00, 0x00, 0x00, 0x00, 0x00, 0x00,
  0x00, 0x00, 0x00, 0x00, 0x00, 0x00, 0x00, 0x00, 0x00, 0x00, 0x00, 0x00,
  0x00, 0x00, 0x00, 0x00, 0x00, 0x00, 0x00, 0x00, 0x00, 0x00, 0x00, 0x00,
  0x00, 0x00, 0x00, 0x00, 0x00, 0x00, 0x00, 0x00, 0x00, 0x00, 0x00, 0x00,
  0x00, 0x00, 0x00, 0x00, 0x00, 0x00, 0x00, 0x00, 0x00, 0x00, 0x00, 0x00,
  0x00, 0x00, 0x00, 0x00, 0x00, 0x00, 0x00, 0x00, 0x00, 0x00, 0x00, 0x00,
  0x00, 0x00, 0x00, 0x00, 0x00, 0x00, 0x00, 0x00, 0x00, 0x00, 0x00, 0x00,
  0x00, 0x00, 0x00, 0x00, 0x00, 0x00, 0x00, 0x00, 0x00, 0x00, 0x00, 0x00,
  0x00, 0x00, 0x00, 0x00, 0x18, 0x00, 0x00, 0x00, 0x4d, 0x11, 0x90, 0x39,
  0xf4, 0xd4, 0x61, 0x39, 0xa4, 0xbd, 0x87, 0x39, 0x1f, 0xd8, 0xc2, 0x39,
  0xd2, 0x4f, 0x9d, 0x39, 0xd3, 0xd3, 0x14, 0x39, 0x05, 0xaa, 0x47, 0x39,
  0x79, 0x9a, 0xd1, 0x39, 0x20, 0x20, 0x8c, 0x39, 0xf9, 0x9b, 0x9e, 0x39,
  0x01, 0xc2, 0xa2, 0x39, 0xd4, 0xd0, 0x6d, 0x39, 0x76, 0xae, 0x4a, 0x39,
  0x0d, 0x3b, 0xd3, 0x39, 0x69, 0x3e, 0x8a, 0x39, 0x8e, 0xb0, 0x98, 0x39,
  0x86, 0x9b, 0x50, 0x39, 0x6a, 0xa3, 0xa0, 0x39, 0x22, 0x49, 0x4f, 0x39,
  0xe7, 0x00, 0x5f, 0x39, 0x0c, 0x45, 0x99, 0x39, 0xfa, 0xe1, 0x44, 0x39,
  0x9c, 0x99, 0xee, 0x39, 0x55, 0xec, 0x0f, 0x3a, 0x12, 0x00, 0x00, 0x00,
  0x74, 0x66, 0x6c, 0x2e, 0x70, 0x73, 0x65, 0x75, 0x64, 0x6f, 0x5f, 0x71,
  0x63, 0x6f, 0x6e, 0x73, 0x74, 0x34, 0x00, 0x00, 0x01, 0x00, 0x00, 0x00,
  0x18, 0x00, 0x00, 0x00, 0xaa, 0xfa, 0xff, 0xff, 0x00, 0x00, 0x00, 0x01,
  0x14, 0x00, 0x00, 0x00, 0xa8, 0x01, 0x00, 0x00, 0x06, 0x00, 0x00, 0x00,
  0x00, 0x00, 0x00, 0x09, 0xb4, 0x01, 0x00, 0x00, 0x84, 0xfb, 0xff, 0xff,
  0x08, 0x00, 0x00, 0x00, 0x0c, 0x01, 0x00, 0x00, 0x20, 0x00, 0x00, 0x00,
  0x00, 0x00, 0x00, 0x00, 0x00, 0x00, 0x00, 0x00, 0x00, 0x00, 0x00, 0x00,
  0x00, 0x00, 0x00, 0x00, 0x00, 0x00, 0x00, 0x00, 0x00, 0x00, 0x00, 0x00,
  0x00, 0x00, 0x00, 0x00, 0x00, 0x00, 0x00, 0x00, 0x00, 0x00, 0x00, 0x00,
  0x00, 0x00, 0x00, 0x00, 0x00, 0x00, 0x00, 0x00, 0x00, 0x00, 0x00, 0x00,
  0x00, 0x00, 0x00, 0x00, 0x00, 0x00, 0x00, 0x00, 0x00, 0x00, 0x00, 0x00,
  0x00, 0x00, 0x00, 0x00, 0x00, 0x00, 0x00, 0x00, 0x00, 0x00, 0x00, 0x00,
  0x00, 0x00, 0x00, 0x00, 0x00, 0x00, 0x00, 0x00, 0x00, 0x00, 0x00, 0x00,
  0x00, 0x00, 0x00, 0x00, 0x00, 0x00, 0x00, 0x00, 0x00, 0x00, 0x00, 0x00,
  0x00, 0x00, 0x00, 0x00, 0x00, 0x00, 0x00, 0x00, 0x00, 0x00, 0x00, 0x00,
  0x00, 0x00, 0x00, 0x00, 0x00, 0x00, 0x00, 0x00, 0x00, 0x00, 0x00, 0x00,
  0x00, 0x00, 0x00, 0x00, 0x00, 0x00, 0x00, 0x00, 0x00, 0x00, 0x00, 0x00,
  0x00, 0x00, 0x00, 0x00, 0x00, 0x00, 0x00, 0x00, 0x00, 0x00, 0x00, 0x00,
  0x00, 0x00, 0x00, 0x00, 0x00, 0x00, 0x00, 0x00, 0x00, 0x00, 0x00, 0x00,
  0x00, 0x00, 0x00, 0x00, 0x00, 0x00, 0x00, 0x00, 0x00, 0x00, 0x00, 0x00,
  0x00, 0x00, 0x00, 0x00, 0x00, 0x00, 0x00, 0x00, 0x00, 0x00, 0x00, 0x00,
  0x00, 0x00, 0x00, 0x00, 0x00, 0x00, 0x00, 0x00, 0x00, 0x00, 0x00, 0x00,
  0x00, 0x00, 0x00, 0x00, 0x00, 0x00, 0x00, 0x00, 0x00, 0x00, 0x00, 0x00,
  0x00, 0x00, 0x00, 0x00, 0x00, 0x00, 0x00, 0x00, 0x00, 0x00, 0x00, 0x00,
  0x00, 0x00, 0x00, 0x00, 0x00, 0x00, 0x00, 0x00, 0x00, 0x00, 0x00, 0x00,
  0x00, 0x00, 0x00, 0x00, 0x00, 0x00, 0x00, 0x00, 0x00, 0x00, 0x00, 0x00,
  0x00, 0x00, 0x00, 0x00, 0x00, 0x00, 0x00, 0x00, 0x00, 0x00, 0x00, 0x00,
  0x00, 0x00, 0x00, 0x00, 0x00, 0x00, 0x00, 0x00, 0x20, 0x00, 0x00, 0x00,
  0x01, 0xfe, 0x00, 0x3d, 0x89, 0xe9, 0x1e, 0x3d, 0xd7, 0x1c, 0xa9, 0x3c,
  0x74, 0xc4, 0x24, 0x3d, 0xb6, 0xc0, 0xdc, 0x3c, 0xb6, 0x64, 0xce, 0x3c,
  0xdf, 0xf3, 0xe3, 0x3c, 0xb9, 0x7d, 0xaa, 0x3c, 0xea, 0xbe, 0xe7, 0x3c,
  0x14, 0xae, 0xc2, 0x3c, 0xfc, 0x40, 0x29, 0x3d, 0x84, 0x1c, 0xb5, 0x3c,
  0x91, 0xa7, 0xe7, 0x3c, 0x7b, 0xbc, 0x14, 0x3d, 0x2b, 0x79, 0xb8, 0x3c,
  0x90, 0x70, 0x26, 0x3d, 0x07, 0x00, 0xbb, 0x3c, 0x5a, 0x57, 0xbf, 0x3c,
  0xe0, 0x77, 0xb7, 0x3c, 0xb4, 0x11, 0xf2, 0x3c, 0xb0, 0x2f, 0xb9, 0x3c,
  0x7b, 0x1a, 0xbf, 0x3c, 0xe9, 0xfb, 0xea, 0x3c, 0x80, 0x3c, 0xa2, 0x3c,
  0x92, 0x2e, 0xde, 0x3c, 0x34, 0x2d, 0xc7, 0x3c, 0x25, 0x7e, 0x00, 0x3d,
  0x8e, 0xcb, 0xbb, 0x3c, 0x1a, 0x6e, 0x94, 0x3c, 0x35, 0x10, 0xf4, 0x3c,
  0xc2, 0x04, 0x0d, 0x3d, 0x93, 0x40, 0xca, 0x3c, 0x12, 0x00, 0x00, 0x00,
  0x74, 0x66, 0x6c, 0x2e, 0x70, 0x73, 0x65, 0x75, 0x64, 0x6f, 0x5f, 0x71,
  0x63, 0x6f, 0x6e, 0x73, 0x74, 0x33, 0x00, 0x00, 0x04, 0x00, 0x00, 0x00,
  0x20, 0x00, 0x00, 0x00, 0x01, 0x00, 0x00, 0x00, 0x01, 0x00, 0x00, 0x00,
  0x18, 0x00, 0x00, 0x00, 0x8a, 0xfc, 0xff, 0xff, 0x00, 0x00, 0x00, 0x01,
  0x14, 0x00, 0x00, 0x00, 0xa4, 0x01, 0x00, 0x00, 0x05, 0x00, 0x00, 0x00,
  0x00, 0x00, 0x00, 0x02, 0xb0, 0x01, 0x00, 0x00, 0x64, 0xfd, 0xff, 0xff,
  0x08, 0x00, 0x00, 0x00, 0x08, 0x01, 0x00, 0x00, 0x20, 0x00, 0x00, 0x00,
  0x00, 0x00, 0x00, 0x00, 0x00, 0x00, 0x00, 0x00, 0x00, 0x00, 0x00, 0x00,
  0x00, 0x00, 0x00, 0x00, 0x00, 0x00, 0x00, 0x00, 0x00, 0x00, 0x00, 0x00,
  0x00, 0x00, 0x00, 0x00, 0x00, 0x00, 0x00, 0x00, 0x00, 0x00, 0x00, 0x00,
  0x00, 0x00, 0x00, 0x00, 0x00, 0x00, 0x00, 0x00, 0x00, 0x00, 0x00, 0x00,
  0x00, 0x00, 0x00, 0x00, 0x00, 0x00, 0x00, 0x00, 0x00, 0x00, 0x00, 0x00,
  0x00, 0x00, 0x00, 0x00, 0x00, 0x00, 0x00, 0x00, 0x00, 0x00, 0x00, 0x00,
  0x00, 0x00, 0x00, 0x00, 0x00, 0x00, 0x00, 0x00, 0x00, 0x00, 0x00, 0x00,
  0x00, 0x00, 0x00, 0x00, 0x00, 0x00, 0x00, 0x00, 0x00, 0x00, 0x00, 0x00,
  0x00, 0x00, 0x00, 0x00, 0x00, 0x00, 0x00, 0x00, 0x00, 0x00, 0x00, 0x00,
  0x00, 0x00, 0x00, 0x00, 0x00, 0x00, 0x00, 0x00, 0x00, 0x00, 0x00, 0x00,
  0x00, 0x00, 0x00, 0x00, 0x00, 0x00, 0x00, 0x00, 0x00, 0x00, 0x00, 0x00,
  0x00, 0x00, 0x00, 0x00, 0x00, 0x00, 0x00, 0x00, 0x00, 0x00, 0x00, 0x00,
  0x00, 0x00, 0x00, 0x00, 0x00, 0x00, 0x00, 0x00, 0x00, 0x00, 0x00, 0x00,
  0x00, 0x00, 0x00, 0x00, 0x00, 0x00, 0x00, 0x00, 0x00, 0x00, 0x00, 0x00,
  0x00, 0x00, 0x00, 0x00, 0x00, 0x00, 0x00, 0x00, 0x00, 0x00, 0x00, 0x00,
  0x00, 0x00, 0x00, 0x00, 0x00, 0x00, 0x00, 0x00, 0x00, 0x00, 0x00, 0x00,
  0x00, 0x00, 0x00, 0x00, 0x00, 0x00, 0x00, 0x00, 0x00, 0x00, 0x00, 0x00,
  0x00, 0x00, 0x00, 0x00, 0x00, 0x00, 0x00, 0x00, 0x00, 0x00, 0x00, 0x00,
  0x00, 0x00, 0x00, 0x00, 0x00, 0x00, 0x00, 0x00, 0x00, 0x00, 0x00, 0x00,
  0x00, 0x00, 0x00, 0x00, 0x00, 0x00, 0x00, 0x00, 0x00, 0x00, 0x00, 0x00,
  0x00, 0x00, 0x00, 0x00, 0x00, 0x00, 0x00, 0x00, 0x00, 0x00, 0x00, 0x00,
  0x00, 0x00, 0x00, 0x00, 0x20, 0x00, 0x00, 0x00, 0x94, 0xfd, 0x19, 0x3a,
  0x81, 0xb5, 0x3d, 0x3a, 0xdf, 0xe2, 0xc9, 0x39, 0xe8, 0xb2, 0x44, 0x3a,
  0x5c, 0xc4, 0x03, 0x3a, 0x52, 0x64, 0xf6, 0x39, 0x8a, 0x10, 0x08, 0x3a,
  0x25, 0x88, 0xcb, 0x39, 0x27, 0x54, 0x0a, 0x3a, 0x8f, 0x68, 0xe8, 0x39,
  0x06, 0x0e, 0x4a, 0x3a, 0xd5, 0x35, 0xd8, 0x39, 0x37, 0x46, 0x0a, 0x3a,
  0x99, 0x8f, 0x31, 0x3a, 0x46, 0x39, 0xdc, 0x39, 0xfc, 0xb1, 0x46, 0x3a,
  0x7e, 0x3d, 0xdf, 0x39, 0x30, 0x6c, 0xe4, 0x39, 0x1e, 0x06, 0xdb, 0x39,
  0xa1, 0x7d, 0x10, 0x3a, 0x2b, 0x13, 0xdd, 0x39, 0x86, 0x23, 0xe4, 0x39,
  0xfb, 0x42, 0x0c, 0x3a, 0x62, 0xad, 0xc1, 0x39, 0xbd, 0x9e, 0x04, 0x3a,
  0xc5, 0xc6, 0xed, 0x39, 0xf0, 0x64, 0x19, 0x3a, 0x77, 0x30, 0xe0, 0x39,
  0x07, 0x32, 0xb1, 0x39, 0x59, 0xae, 0x11, 0x3a, 0xfc, 0x58, 0x28, 0x3a,
  0xbb, 0x72, 0xf1, 0x39, 0x12, 0x00, 0x00, 0x00, 0x74, 0x66, 0x6c, 0x2e,
  0x70, 0x73, 0x65, 0x75, 0x64, 0x6f, 0x5f, 0x71, 0x63, 0x6f, 0x6e, 0x73,
  0x74, 0x32, 0x00, 0x00, 0x01, 0x00, 0x00, 0x00, 0x20, 0x00, 0x00, 0x00,
  0x5a, 0xfe, 0xff, 0xff, 0x00, 0x00, 0x00, 0x01, 0x14, 0x00, 0x00, 0x00,
  0x9c, 0x00, 0x00, 0x00, 0x04, 0x00, 0x00, 0x00, 0x00, 0x00, 0x00, 0x09,
  0xa8, 0x00, 0x00, 0x00, 0x34, 0xff, 0xff, 0xff, 0x08, 0x00, 0x00, 0x00,
  0x58, 0x00, 0x00, 0x00, 0x0a, 0x00, 0x00, 0x00, 0x00, 0x00, 0x00, 0x00,
  0x00, 0x00, 0x00, 0x00, 0x00, 0x00, 0x00, 0x00, 0x00, 0x00, 0x00, 0x00,
  0x00, 0x00, 0x00, 0x00, 0x00, 0x00, 0x00, 0x00, 0x00, 0x00, 0x00, 0x00,
  0x00, 0x00, 0x00, 0x00, 0x00, 0x00, 0x00, 0x00, 0x00, 0x00, 0x00, 0x00,
  0x00, 0x00, 0x00, 0x00, 0x00, 0x00, 0x00, 0x00, 0x00, 0x00, 0x00, 0x00,
  0x00, 0x00, 0x00, 0x00, 0x00, 0x00, 0x00, 0x00, 0x00, 0x00, 0x00, 0x00,
  0x00, 0x00, 0x00, 0x00, 0x00, 0x00, 0x00, 0x00, 0x00, 0x00, 0x00, 0x00,
  0x00, 0x00, 0x00, 0x00, 0x0a, 0x00, 0x00, 0x00, 0x9b, 0x6e, 0xfe, 0x3b,
  0xb2, 0xd7, 0x12, 0x3c, 0x69, 0xc8, 0xe2, 0x3b, 0xd3, 0x1c, 0x33, 0x3c,
  0xa8, 0x46, 0xff, 0x3b, 0xd4, 0x8e, 0xfe, 0x3b, 0x34, 0x55, 0x0a, 0x3c,
  0xa0, 0x70, 0x05, 0x3c, 0xd8, 0xff, 0x00, 0x3c, 0xbf, 0x7d, 0xe6, 0x3b,
  0x12, 0x00, 0x00, 0x00, 0x74, 0x66, 0x6c, 0x2e, 0x70, 0x73, 0x65, 0x75,
  0x64, 0x6f, 0x5f, 0x71, 0x63, 0x6f, 0x6e, 0x73, 0x74, 0x31, 0x00, 0x00,
  0x02, 0x00, 0x00, 0x00, 0x0a, 0x00, 0x00, 0x00, 0x20, 0x00, 0x00, 0x00,
  0x26, 0xff, 0xff, 0xff, 0x00, 0x00, 0x00, 0x01, 0x20, 0x00, 0x00, 0x00,
  0xac, 0x00, 0x00, 0x00, 0x03, 0x00, 0x00, 0x00, 0x00, 0x00, 0x00, 0x02,
  0xb8, 0x00, 0x00, 0x00, 0x0c, 0x00, 0x0c, 0x00, 0x00, 0x00, 0x00, 0x00,
  0x08, 0x00, 0x04, 0x00, 0x0c, 0x00, 0x00, 0x00, 0x08, 0x00, 0x00, 0x00,
  0x5c, 0x00, 0x00, 0x00, 0x0a, 0x00, 0x00, 0x00, 0x00, 0x00, 0x00, 0x00,
  0x00, 0x00, 0x00, 0x00, 0x00, 0x00, 0x00, 0x00, 0x00, 0x00, 0x00, 0x00,
  0x00, 0x00, 0x00, 0x00, 0x00, 0x00, 0x00, 0x00, 0x00, 0x00, 0x00, 0x00,
  0x00, 0x00, 0x00, 0x00, 0x00, 0x00, 0x00, 0x00, 0x00, 0x00, 0x00, 0x00,
  0x00, 0x00, 0x00, 0x00, 0x00, 0x00, 0x00, 0x00, 0x00, 0x00, 0x00, 0x00,
  0x00, 0x00, 0x00, 0x00, 0x00, 0x00, 0x00, 0x00, 0x00, 0x00, 0x00, 0x00,
  0x00, 0x00, 0x00, 0x00, 0x00, 0x00, 0x00, 0x00, 0x00, 0x00, 0x00, 0x00,
  0x00, 0x00, 0x00, 0x00, 0x00, 0x00, 0x00, 0x00, 0x0a, 0x00, 0x00, 0x00,
  0x40, 0xd5, 0x1d, 0x39, 0xdc, 0x2e, 0x36, 0x39, 0x67, 0xae, 0x0c, 0x39,
  0x30, 0x38, 0x5e, 0x39, 0x46, 0x5b, 0x1e, 0x39, 0x3d, 0xe9, 0x1d, 0x39,
  0x12, 0xa0, 0x2b, 0x39, 0x09, 0x8e, 0x25, 0x39, 0xab, 0x0b, 0x20, 0x39,
  0x4f, 0xfb, 0x0e, 0x39, 0x11, 0x00, 0x00, 0x00, 0x74, 0x66, 0x6c, 0x2e,
  0x70, 0x73, 0x65, 0x75, 0x64, 0x6f, 0x5f, 0x71, 0x63, 0x6f, 0x6e, 0x73,
  0x74, 0x00, 0x00, 0x00, 0x01, 0x00, 0x00, 0x00, 0x0a, 0x00, 0x00, 0x00,
  0x00, 0x00, 0x16, 0x00, 0x1c, 0x00, 0x18, 0x00, 0x17, 0x00, 0x10, 0x00,
  0x0c, 0x00, 0x08, 0x00, 0x00, 0x00, 0x00, 0x00, 0x00, 0x00, 0x07, 0x00,
  0x16, 0x00, 0x00, 0x00, 0x00, 0x00, 0x00, 0x01, 0x14, 0x00, 0x00, 0x00,
  0x14, 0x00, 0x00, 0x00, 0x02, 0x00, 0x00, 0x00, 0x00, 0x00, 0x00, 0x02,
  0x1c, 0x00, 0x00, 0x00, 0x98, 0xff, 0xff, 0xff, 0x0e, 0x00, 0x00, 0x00,
  0x61, 0x72, 0x69, 0x74, 0x68, 0x2e, 0x63, 0x6f, 0x6e, 0x73, 0x74, 0x61,
  0x6e, 0x74, 0x00, 0x00, 0x01, 0x00, 0x00, 0x00, 0x02, 0x00, 0x00, 0x00,
  0x00, 0x00, 0x16, 0x00, 0x1c, 0x00, 0x18, 0x00, 0x00, 0x00, 0x14, 0x00,
  0x10, 0x00, 0x0c, 0x00, 0x00, 0x00, 0x00, 0x00, 0x08, 0x00, 0x07, 0x00,
  0x16, 0x00, 0x00, 0x00, 0x00, 0x00, 0x00, 0x01, 0x14, 0x00, 0x00, 0x00,
  0x28, 0x00, 0x00, 0x00, 0x28, 0x00, 0x00, 0x00, 0x01, 0x00, 0x00, 0x00,
  0x48, 0x00, 0x00, 0x00, 0x04, 0x00, 0x00, 0x00, 0xff, 0xff, 0xff, 0xff,
  0x20, 0x00, 0x00, 0x00, 0x20, 0x00, 0x00, 0x00, 0x03, 0x00, 0x00, 0x00,
  0x04, 0x00, 0x04, 0x00, 0x04, 0x00, 0x00, 0x00, 0x21, 0x00, 0x00, 0x00,
  0x73, 0x65, 0x72, 0x76, 0x69, 0x6e, 0x67, 0x5f, 0x64, 0x65, 0x66, 0x61,
  0x75, 0x6c, 0x74, 0x5f, 0x6b, 0x65, 0x72, 0x61, 0x73, 0x5f, 0x74, 0x65,
  0x6e, 0x73, 0x6f, 0x72, 0x5f, 0x32, 0x33, 0x3a, 0x30, 0x00, 0x00, 0x00,
  0x04, 0x00, 0x00, 0x00, 0x01, 0x00, 0x00, 0x00, 0x20, 0x00, 0x00, 0x00,
  0x20, 0x00, 0x00, 0x00, 0x03, 0x00, 0x00, 0x00, 0x08, 0x00, 0x00, 0x00,
  0xa8, 0x00, 0x00, 0x00, 0x88, 0x00, 0x00, 0x00, 0x68, 0x00, 0x00, 0x00,
  0x54, 0x00, 0x00, 0x00, 0x40, 0x00, 0x00, 0x00, 0x2c, 0x00, 0x00, 0x00,
  0x18, 0x00, 0x00, 0x00, 0x04, 0x00, 0x00, 0x00, 0xa0, 0xff, 0xff, 0xff,
  0x06, 0x00, 0x00, 0x00, 0x02, 0x00, 0x00, 0x00, 0x00, 0x00, 0x00, 0x06,
  0xb0, 0xff, 0xff, 0xff, 0x19, 0x00, 0x00, 0x00, 0x02, 0x00, 0x00, 0x00,
  0x00, 0x00, 0x00, 0x19, 0xc0, 0xff, 0xff, 0xff, 0x09, 0x00, 0x00, 0x00,
  0x04, 0x00, 0x00, 0x00, 0x00, 0x00, 0x00, 0x09, 0xd0, 0xff, 0xff, 0xff,
  0x28, 0x00, 0x00, 0x00, 0x02, 0x00, 0x00, 0x00, 0x00, 0x00, 0x00, 0x28,
  0xe0, 0xff, 0xff, 0xff, 0x11, 0x00, 0x00, 0x00, 0x02, 0x00, 0x00, 0x00,
  0x00, 0x00, 0x00, 0x11, 0xf0, 0xff, 0xff, 0xff, 0x04, 0x00, 0x00, 0x00,
  0x03, 0x00, 0x00, 0x00, 0x00, 0x00, 0x00, 0x04, 0x0c, 0x00, 0x10, 0x00,
  0x0f, 0x00, 0x00, 0x00, 0x08, 0x00, 0x04, 0x00, 0x0c, 0x00, 0x00, 0x00,
  0x03, 0x00, 0x00, 0x00, 0x03, 0x00, 0x00, 0x00, 0x00, 0x00, 0x00, 0x03,
  0x0c, 0x00, 0x0c, 0x00, 0x0b, 0x00, 0x00, 0x00, 0x00, 0x00, 0x04, 0x00,
  0x0c, 0x00, 0x00, 0x00, 0x72, 0x00, 0x00, 0x00, 0x00, 0x00, 0x00, 0x72
};

#endif
